<unk>	0
<s>	0
</s>	0
.	-2.55027
▁and	-3.22378
▁the	-3.29422
,	-3.30124
▁to	-3.56694
▁a	-3.66139
▁was	-3.86666
▁it	-4.45617
▁"	-4.49854
▁She	-4.56419
▁her	-4.58958
▁He	-4.59569
▁They	-4.59875
'	-4.65191
▁The	-4.81103
▁said	-4.83846
▁he	-4.86592
▁in	-4.96144
▁Lily	-4.97028
▁with	-4.97864
▁she	-4.98574
s	-5.03352
▁his	-5.06411
▁day	-5.12268
▁that	-5.13386
▁of	-5.14574
▁you	-5.22441
▁had	-5.2337
▁they	-5.23718
▁so	-5.26603
▁on	-5.2794
▁for	-5.41387
▁very	-5.4792
▁	-5.50819
▁time	-5.51881
▁little	-5.53136
▁there	-5.54174
▁mom	-5.54718
▁happy	-5.54826
▁It	-5.55136
!	-5.55341
▁is	-5.55906
t	-5.57313
▁not	-5.57683
▁big	-5.60005
▁saw	-5.60298
."	-5.62215
▁One	-5.67558
▁I	-5.68445
!"	-5.71016
▁but	-5.71019
▁were	-5.71713
▁play	-5.71802
▁Once	-5.74984
▁are	-5.82339
▁wanted	-5.85469
▁upon	-5.87783
▁girl	-5.88433
▁him	-5.88541
▁their	-5.89234
▁them	-5.89383
▁have	-5.9607
▁Ben	-5.96346
▁be	-5.96503
▁Tom	-5.96509
▁up	-5.98294
▁went	-6.04848
▁go	-6.06535
▁can	-6.08638
▁But	-6.08993
?"	-6.09622
▁friends	-6.10719
▁at	-6.1256
▁all	-6.15077
▁Timmy	-6.20453
▁back	-6.20986
▁named	-6.2342
▁too	-6.24314
▁loved	-6.25563
▁like	-6.25879
▁smiled	-6.26102
▁felt	-6.27629
▁fun	-6.28522
▁asked	-6.28857
▁could	-6.29019
▁looked	-6.29942
▁around	-6.31838
▁out	-6.35014
▁boy	-6.37727
▁did	-6.39989
▁help	-6.41604
▁see	-6.41667
▁make	-6.42853
▁some	-6.43016
▁would	-6.43273
▁what	-6.438
▁says	-6.4422
,"	-6.44391
▁away	-6.45964
▁You	-6.46526
▁ran	-6.48262
▁want	-6.48903
▁made	-6.49545
I	-6.49586
▁started	-6.49876
▁together	-6.51711
▁something	-6.52314
▁park	-6.52998
▁do	-6.56135
▁from	-6.56461
▁sad	-6.56518
▁put	-6.57701
▁new	-6.5869
▁home	-6.60317
▁Tim	-6.61174
▁again	-6.6204
▁when	-6.62549
▁found	-6.63629
▁bird	-6.63871
▁then	-6.66778
▁playing	-6.67056
▁other	-6.67501
▁who	-6.6843
▁liked	-6.6974
▁things	-6.70283
▁we	-6.72114
▁friend	-6.74826
▁got	-6.75174
▁came	-6.75788
▁decided	-6.76114
▁excited	-6.77313
▁Mom	-6.77743
▁man	-6.77935
▁scared	-6.79004
▁one	-6.80365
▁down	-6.80997
▁Sam	-6.81033
▁dog	-6.81844
▁Anna	-6.83894
▁an	-6.84711
▁will	-6.84813
▁find	-6.85792
▁your	-6.85894
▁get	-6.86623
▁Max	-6.86732
▁didn	-6.87939
▁me	-6.88238
▁took	-6.88253
▁toys	-6.88735
▁about	-6.88849
▁good	-6.88908
▁always	-6.89316
▁mommy	-6.90058
▁tree	-6.91941
▁outside	-6.92337
▁more	-6.93412
▁my	-6.94395
▁as	-6.96519
▁thought	-6.97158
▁take	-6.98095
▁special	-7.00466
▁knew	-7.00938
▁dad	-7.02053
▁When	-7.0207
▁old	-7.02496
▁Her	-7.03622
▁car	-7.03645
▁sorry	-7.05202
▁toy	-7.05735
▁how	-7.05875
▁know	-7.06082
▁much	-7.08924
▁house	-7.10549
▁So	-7.12124
▁tried	-7.13157
▁ball	-7.13939
m	-7.141
▁Jack	-7.14151
▁look	-7.14253
▁into	-7.14344
▁inside	-7.14519
▁told	-7.15692
▁gave	-7.15936
▁water	-7.1606
▁each	-7.17222
▁if	-7.1758
▁heard	-7.17895
▁couldn	-7.18031
▁We	-7.18286
▁never	-7.18514
▁Sara	-7.18621
▁Mia	-7.187
▁this	-7.18984
▁room	-7.19666
▁played	-7.20766
▁over	-7.20884
▁hugged	-7.21984
▁proud	-7.22291
▁Suddenly	-7.22699
▁just	-7.23535
▁Then	-7.23963
▁From	-7.24178
▁no	-7.24362
▁many	-7.24378
▁because	-7.25479
▁His	-7.2858
▁nice	-7.29126
▁box	-7.3021
▁And	-7.30994
▁learned	-7.32861
▁bear	-7.34172
▁small	-7.34578
▁until	-7.35093
▁better	-7.36355
▁don	-7.39416
▁best	-7.39514
▁careful	-7.41196
▁eat	-7.41321
Yes	-7.41946
▁say	-7.43592
▁garden	-7.43633
▁sky	-7.44085
▁thanked	-7.44319
▁off	-7.45185
▁laughed	-7.45295
▁cat	-7.45573
▁love	-7.46625
▁by	-7.47029
▁come	-7.47682
▁long	-7.4854
▁even	-7.48577
▁end	-7.48965
▁still	-7.49101
▁beautiful	-7.49446
▁animals	-7.4993
▁lots	-7.50333
▁“	-7.517
▁kind	-7.52189
You	-7.52454
▁safe	-7.54829
▁both	-7.56108
▁way	-7.56346
▁feel	-7.56923
▁hard	-7.57631
▁let	-7.58123
It	-7.58819
▁angry	-7.58951
▁lived	-7.59134
▁two	-7.60315
▁As	-7.60431
▁people	-7.6077
▁hurt	-7.60897
▁family	-7.61045
▁sun	-7.61219
▁loud	-7.61425
▁give	-7.61821
▁red	-7.62048
▁walked	-7.62216
▁bad	-7.6256
▁try	-7.628
▁flew	-7.63116
▁share	-7.63324
▁every	-7.63721
Let	-7.63882
▁brave	-7.64138
▁After	-7.64533
▁soon	-7.64633
▁Lucy	-7.65065
▁kept	-7.65586
▁called	-7.65612
▁or	-7.66372
▁pretty	-7.67212
▁shiny	-7.68552
▁going	-7.69016
▁noise	-7.69027
▁Mommy	-7.69861
No	-7.70439
▁run	-7.70596
▁opened	-7.71069
▁before	-7.72115
▁should	-7.72511
▁also	-7.72797
▁ground	-7.72925
▁John	-7.73007
▁lot	-7.73439
▁fast	-7.73733
▁hug	-7.74249
▁door	-7.74468
▁its	-7.74661
▁idea	-7.74749
What	-7.74998
▁has	-7.75814
▁now	-7.76692
▁explore	-7.7693
▁next	-7.7797
▁picked	-7.78027
▁keep	-7.78054
▁nodded	-7.7825
▁feeling	-7.78585
▁smile	-7.79146
▁need	-7.79726
▁while	-7.8006
▁Every	-7.80715
▁walking	-7.80999
?	-7.82295
That	-7.82715
▁being	-7.83433
Thank	-7.84009
▁show	-7.84921
▁food	-7.85727
▁eyes	-7.86389
▁stopped	-7.87386
▁fish	-7.87764
▁looking	-7.88215
▁clean	-7.88318
▁Spot	-7.88843
-	-7.88879
▁flowers	-7.89011
▁slide	-7.89404
▁Sue	-7.89546
▁hand	-7.89574
▁ever	-7.9056
▁truck	-7.90917
re	-7.90927
▁Bob	-7.91008
▁great	-7.91051
▁hands	-7.91807
▁noticed	-7.92487
▁forest	-7.93115
▁okay	-7.93437
We	-7.93618
▁showed	-7.93955
▁listen	-7.94518
▁important	-7.95362
▁everyone	-7.965
▁replied	-7.97426
▁after	-7.97484
▁where	-7.97588
▁right	-7.97984
Look	-7.98235
▁watched	-7.98346
▁blue	-7.98969
▁face	-7.99653
▁stay	-7.99762
▁quickly	-8.00664
▁place	-8.01228
▁rabbit	-8.01288
▁Lila	-8.01666
▁became	-8.01713
▁been	-8.01831
▁bed	-8.01856
▁work	-8.02297
▁goodbye	-8.02361
▁sure	-8.02439
▁Sarah	-8.02465
▁voice	-8.02998
▁different	-8.03057
▁mean	-8.03211
▁walk	-8.03612
▁cake	-8.03758
▁store	-8.03761
▁high	-8.03767
▁our	-8.04094
▁fly	-8.04367
▁anymore	-8.04571
▁Jane	-8.04846
▁closer	-8.05094
▁doll	-8.05454
▁head	-8.06789
▁boat	-8.0763
▁curious	-8.07728
Can	-8.08206
▁does	-8.08966
▁first	-8.09428
▁Dad	-8.09461
▁strong	-8.09564
▁fell	-8.0992
▁use	-8.10084
▁grabbed	-8.10327
▁warm	-8.11415
▁us	-8.11452
▁only	-8.11744
▁kitchen	-8.11844
▁three	-8.12313
▁Everyone	-8.12391
▁night	-8.12554
▁helped	-8.12681
▁wait	-8.1355
▁adventure	-8.14544
▁happened	-8.14743
▁jumped	-8.14753
▁glad	-8.15388
▁birds	-8.15658
▁dress	-8.15878
▁sees	-8.16931
▁realized	-8.17509
▁cry	-8.17755
▁book	-8.18194
▁shouted	-8.18641
▁reached	-8.18962
▁story	-8.1897
▁That	-8.1904
▁game	-8.19383
▁grass	-8.19462
▁yummy	-8.19566
▁having	-8.20106
▁bright	-8.20355
▁rock	-8.20412
▁bit	-8.21664
▁favorite	-8.21974
▁open	-8.22198
▁ready	-8.22588
▁thing	-8.23186
▁through	-8.23447
▁learn	-8.23561
▁watch	-8.23615
▁Let	-8.23802
▁making	-8.23863
▁lady	-8.24407
▁Joe	-8.24472
▁kids	-8.24583
▁really	-8.24598
▁ate	-8.24672
Wow	-8.24964
▁pond	-8.25183
▁world	-8.25421
▁tired	-8.25424
▁stop	-8.25489
▁Tommy	-8.2555
▁began	-8.25782
▁bunny	-8.25819
▁looks	-8.25847
▁waved	-8.26094
▁mum	-8.26156
▁done	-8.26255
▁himself	-8.26349
▁than	-8.26355
▁coming	-8.26853
▁am	-8.26942
▁Can	-8.27243
▁Do	-8.27321
▁name	-8.27516
▁funny	-8.27524
▁near	-8.27525
▁here	-8.2755
▁cars	-8.27608
▁cried	-8.27649
▁used	-8.27882
▁why	-8.28324
▁flower	-8.28669
▁another	-8.28797
▁blocks	-8.2902
▁A	-8.2935
▁worry	-8.29622
▁under	-8.3015
▁soft	-8.30486
▁seen	-8.30578
▁wished	-8.31081
e	-8.31273
▁catch	-8.31373
▁mouse	-8.3164
▁touch	-8.31909
▁green	-8.31986
Don	-8.32059
▁paper	-8.32071
▁floor	-8.32273
▁top	-8.32615
▁brother	-8.32826
▁care	-8.33346
▁parents	-8.33409
▁behind	-8.33563
▁surprise	-8.3374
▁Sally	-8.33751
▁think	-8.34473
▁hole	-8.34647
▁doing	-8.34746
▁hopped	-8.34899
▁worked	-8.35075
▁lesson	-8.3534
▁yellow	-8.36178
▁full	-8.36749
▁running	-8.36929
▁pick	-8.36995
▁Benny	-8.37563
▁likes	-8.37841
▁trees	-8.3903
▁remembered	-8.39313
▁surprised	-8.39328
▁cold	-8.39451
▁butterfly	-8.40037
▁happily	-8.40077
▁lost	-8.40243
▁needed	-8.40368
Hello	-8.40506
▁years	-8.40961
▁held	-8.41126
▁hear	-8.4122
▁tell	-8.41306
▁cool	-8.41399
▁ice	-8.41457
▁anything	-8.41661
▁picture	-8.41866
▁carefully	-8.41967
▁wrong	-8.41976
▁move	-8.42805
▁At	-8.4285
▁dark	-8.42916
▁left	-8.43613
▁-	-8.44613
▁followed	-8.44663
▁buy	-8.44779
▁sound	-8.44822
▁enjoyed	-8.45103
▁Billy	-8.4523
▁Now	-8.45334
▁finished	-8.45406
▁sat	-8.45628
ll	-8.4564
▁children	-8.45666
▁There	-8.46503
▁Finally	-8.4651
▁Daisy	-8.46546
▁close	-8.46561
▁herself	-8.46573
▁rain	-8.47011
▁friendly	-8.47283
▁wind	-8.47912
▁please	-8.48219
▁own	-8.48687
▁swing	-8.48776
▁colors	-8.49079
▁bag	-8.49315
▁else	-8.49366
▁table	-8.49402
▁hat	-8.49477
▁broken	-8.4968
▁delicious	-8.49854
▁window	-8.49939
▁stick	-8.50378
▁gone	-8.5088
d	-8.51935
▁frog	-8.52079
▁climb	-8.52171
▁arrived	-8.5233
▁sweet	-8.5267
▁jump	-8.52727
▁able	-8.52829
▁wonderful	-8.52837
".	-8.52934
▁leaves	-8.53008
▁baby	-8.53046
▁someone	-8.53222
▁far	-8.53447
▁Molly	-8.53761
▁read	-8.54012
▁hill	-8.54083
▁filled	-8.5417
▁books	-8.55003
▁tall	-8.55063
▁wants	-8.55332
▁continued	-8.55443
▁lion	-8.55565
!”	-8.55746
▁any	-8.55829
▁ask	-8.56629
▁understand	-8.56999
▁yes	-8.5709
▁This	-8.57222
▁Amy	-8.57223
▁agreed	-8.57282
▁laugh	-8.57366
▁pink	-8.57513
▁mess	-8.58013
▁scary	-8.58117
▁castle	-8.5839
▁enough	-8.5874
▁grandma	-8.59317
▁Maybe	-8.5956
▁stayed	-8.59617
▁morning	-8.59725
▁hungry	-8.59818
▁forgot	-8.60183
▁hair	-8.60385
▁finally	-8.60534
▁hot	-8.60574
▁getting	-8.6107
▁cookies	-8.61196
▁turned	-8.61203
▁sometimes	-8.61536
▁smiles	-8.61834
▁fire	-8.61874
▁beach	-8.62682
.”	-8.62877
ing	-8.63064
▁pictures	-8.6309
▁climbed	-8.63196
▁trying	-8.63622
▁dinner	-8.63622
▁listened	-8.63673
▁amazing	-8.64045
▁set	-8.64389
▁fix	-8.64654
▁talk	-8.64663
▁clothes	-8.64757
▁few	-8.64999
▁puppy	-8.6546
▁wet	-8.65519
▁Jill	-8.65752
▁mother	-8.65759
▁makes	-8.65784
ed	-8.66161
▁daddy	-8.66179
▁tail	-8.66842
▁white	-8.67314
▁cream	-8.67603
▁squirrel	-8.67657
▁alone	-8.67717
▁asks	-8.67795
▁others	-8.67947
▁light	-8.68109
▁duck	-8.68324
▁air	-8.686
▁brought	-8.69042
▁everything	-8.69077
▁What	-8.69319
▁moment	-8.69381
▁rest	-8.69409
Oh	-8.7
▁strange	-8.70123
But	-8.70251
▁pulled	-8.70418
▁waited	-8.70886
▁ride	-8.71314
▁thank	-8.71457
This	-8.71564
▁might	-8.72622
▁leave	-8.7282
▁woods	-8.72919
Maybe	-8.73412
▁won	-8.73489
n	-8.73749
"	-8.73829
▁amazed	-8.73975
▁joy	-8.74941
▁thinks	-8.74968
▁teddy	-8.75262
▁runs	-8.75283
▁hide	-8.75338
▁Soon	-8.75859
▁silly	-8.76522
O	-8.76581
▁pretend	-8.76643
▁flying	-8.76928
▁living	-8.76999
▁towards	-8.774
▁owner	-8.77429
▁sing	-8.77538
▁fox	-8.78282
▁draw	-8.7876
▁lake	-8.79141
Okay	-8.79821
▁money	-8.79868
▁perfect	-8.8002
▁dance	-8.8006
▁shared	-8.80092
▁faster	-8.80444
▁All	-8.80463
▁promised	-8.80518
▁party	-8.80544
▁grateful	-8.80582
▁race	-8.813
Mom	-8.81455
▁moral	-8.8169
▁broke	-8.82088
▁sand	-8.82411
▁candy	-8.82587
▁In	-8.82632
▁colorful	-8.8281
▁pieces	-8.8284
▁worried	-8.82878
▁wear	-8.83205
▁deep	-8.83401
▁train	-8.83442
▁bigger	-8.83488
▁slowly	-8.8368
▁job	-8.83818
▁Daddy	-8.84149
▁bike	-8.84994
▁Mama	-8.85557
▁dolls	-8.85715
▁everywhere	-8.85791
▁sit	-8.85998
▁wasn	-8.86066
▁visit	-8.86881
▁music	-8.86907
▁sleep	-8.8691
▁sister	-8.87199
▁smart	-8.87672
▁magical	-8.87981
Sure	-8.88065
▁s	-8.88152
▁bug	-8.88169
▁join	-8.88186
▁cut	-8.88407
▁side	-8.88548
▁dangerous	-8.88607
uch	-8.88774
▁helping	-8.88836
▁threw	-8.8909
▁dirty	-8.89233
▁tower	-8.89558
▁Just	-8.89666
▁twins	-8.89759
▁Mary	-8.89772
▁crying	-8.9006
▁reach	-8.90325
▁bite	-8.90359
▁farmer	-8.9052
▁hoped	-8.90637
Why	-8.90871
▁monster	-8.90971
▁same	-8.91144
▁heavy	-8.91177
▁most	-8.91235
▁dragon	-8.91499
▁words	-8.91872
▁river	-8.91905
▁turn	-8.92309
▁balloon	-8.92319
▁swim	-8.92341
Mommy	-8.92568
Hi	-8.92848
▁across	-8.93005
▁spot	-8.93166
▁met	-8.9349
▁mouth	-8.93831
▁princess	-8.93932
▁stepped	-8.93987
▁stuck	-8.94488
▁wall	-8.94515
▁bowl	-8.94542
▁remember	-8.94572
▁closed	-8.94621
▁believe	-8.95076
▁field	-8.95475
▁Grandma	-8.9554
▁tight	-8.95632
▁song	-8.95979
▁start	-8.96292
▁wouldn	-8.97188
▁quiet	-8.97372
▁town	-8.97523
ir	-8.97527
▁feels	-8.97937
▁eating	-8.98115
▁doctor	-8.98471
▁school	-8.9856
▁Emma	-8.98702
▁teacher	-8.9884
▁paint	-8.99047
▁yard	-8.99354
▁pushed	-8.99425
▁treasure	-8.99502
▁brown	-8.99756
▁blanket	-9.00023
▁course	-9.00216
▁break	-9.00418
▁clapped	-9.00426
▁gentle	-9.00679
▁without	-9.00733
▁higher	-9.00917
▁Jimmy	-9.0094
▁must	-9.01481
▁welcome	-9.01697
▁Mum	-9.02026
▁black	-9.02045
▁fairy	-9.02055
▁Inside	-9.02227
▁drove	-9.02723
▁swings	-9.02982
▁suddenly	-9.03104
▁piece	-9.03341
▁games	-9.0344
▁animal	-9.03879
▁pet	-9.03963
▁cheered	-9.04015
▁fence	-9.04141
▁turns	-9.04176
▁lonely	-9.04481
▁noises	-9.04953
▁today	-9.052
▁wings	-9.05219
▁magic	-9.05841
▁dry	-9.05986
▁longer	-9.0602
▁sang	-9.06083
▁hugs	-9.06133
▁explained	-9.06299
▁late	-9.06925
▁soup	-9.06955
▁stories	-9.07328
▁build	-9.07343
▁upset	-9.08036
▁child	-9.08046
▁well	-9.08104
▁shoes	-9.08151
▁sign	-9.08311
▁along	-9.08622
▁Fluffy	-9.08721
▁caught	-9.0875
Lily	-9.08813
▁singing	-9.09058
▁stars	-9.09513
▁hold	-9.09595
▁swam	-9.10052
▁dropped	-9.10089
▁wish	-9.10216
▁Sammy	-9.10216
▁adventures	-9.10308
▁shook	-9.10328
?”	-9.1065
▁juice	-9.10837
▁rocks	-9.10886
▁moved	-9.11001
▁jar	-9.11241
▁sea	-9.11342
▁pocket	-9.1142
▁naughty	-9.11424
▁backyard	-9.11497
▁mine	-9.11666
▁fight	-9.11714
y	-9.11891
▁lunch	-9.1234
▁On	-9.12676
▁forget	-9.12837
▁apple	-9.12989
▁young	-9.13223
▁enjoy	-9.13299
▁taking	-9.13467
▁orange	-9.13483
▁hit	-9.13669
▁nap	-9.14016
▁shapes	-9.14104
▁exploring	-9.14262
▁monkey	-9.14444
▁heart	-9.14487
▁chair	-9.14596
▁woke	-9.14828
▁nearby	-9.14945
▁owl	-9.15023
▁wise	-9.15036
▁nose	-9.15143
▁bee	-9.15443
▁star	-9.15495
▁Later	-9.15539
▁real	-9.1575
▁wondered	-9.1596
Do	-9.16126
▁street	-9.16203
▁Jen	-9.16454
The	-9.1651
▁seemed	-9.16741
▁busy	-9.16898
▁bench	-9.17029
▁purple	-9.17124
▁tiny	-9.17132
▁snow	-9.17508
▁though	-9.17886
▁farm	-9.18047
▁sounds	-9.1831
▁bucket	-9.1859
▁arms	-9.18776
▁fall	-9.18844
▁takes	-9.18895
▁year	-9.19105
▁sick	-9.19217
▁mad	-9.19364
▁pull	-9.19593
▁sitting	-9.1979
▁comes	-9.20052
▁holding	-9.20168
▁secret	-9.20718
▁basket	-9.20858
▁gift	-9.20906
▁afraid	-9.21032
▁kite	-9.21069
▁branch	-9.212
▁nest	-9.21533
▁forever	-9.21738
▁hello	-9.21825
▁bring	-9.22251
▁daughter	-9.22321
▁cute	-9.22525
Of	-9.22718
▁nothing	-9.22972
▁drink	-9.23268
▁round	-9.23429
▁swimming	-9.23569
▁driver	-9.23627
▁touched	-9.2384
▁With	-9.23845
▁promise	-9.24174
▁Mr	-9.24256
▁elephant	-9.24472
▁huge	-9.24928
▁bread	-9.24963
▁key	-9.2511
▁relieved	-9.25122
▁Come	-9.25214
▁birthday	-9.25549
▁accidentally	-9.25724
▁bottle	-9.26009
▁fit	-9.26107
▁milk	-9.26754
Hey	-9.26942
▁rainbow	-9.27207
▁dream	-9.27268
▁cheese	-9.27304
▁cozy	-9.27643
▁laughing	-9.2772
▁lucky	-9.27865
▁Thank	-9.28039
▁exciting	-9.28203
▁cave	-9.28432
▁sunshine	-9.29298
▁life	-9.29394
▁sunny	-9.29427
▁bush	-9.29698
▁Jenny	-9.29731
▁instead	-9.3006
▁follow	-9.30418
▁journey	-9.30935
▁pointed	-9.3117
▁plan	-9.31185
▁onto	-9.31297
▁smiling	-9.31389
▁grow	-9.31605
▁searched	-9.31873
▁Jim	-9.31954
▁pot	-9.32092
▁anyone	-9.3235
▁plane	-9.32382
▁treat	-9.32621
▁talked	-9.32842
▁bought	-9.32884
▁later	-9.32983
▁woman	-9.33086
▁hope	-9.33423
▁snowman	-9.33755
▁honey	-9.34016
▁rope	-9.34041
▁pile	-9.341
▁watching	-9.34171
▁sharp	-9.34198
▁healthy	-9.3443
▁smelled	-9.3446
▁crayons	-9.34504
▁tasty	-9.34692
▁person	-9.35038
▁win	-9.36477
▁free	-9.3688
▁button	-9.37022
▁shining	-9.37062
▁ducks	-9.37197
▁clouds	-9.3723
▁interesting	-9.37729
▁fair	-9.37745
▁Emily	-9.37827
▁apples	-9.38092
▁trouble	-9.38171
▁cup	-9.38305
▁wide	-9.38542
▁Mittens	-9.39188
f	-9.39389
▁storm	-9.39467
▁T	-9.39527
▁snack	-9.39547
▁clever	-9.39706
▁arm	-9.40942
▁loves	-9.41158
▁road	-9.41347
▁front	-9.41429
▁screamed	-9.41506
Come	-9.41892
▁spoon	-9.41948
▁mud	-9.41974
▁goes	-9.42021
▁horse	-9.42095
▁bow	-9.42168
▁forgive	-9.4241
▁patient	-9.42534
▁danced	-9.42784
▁asleep	-9.43424
▁snake	-9.43715
▁fruit	-9.43872
▁spotted	-9.44205
▁coat	-9.44307
▁tries	-9.4443
▁appeared	-9.445
▁phone	-9.44522
▁whole	-9.44695
▁king	-9.44707
▁Jake	-9.44873
▁which	-9.44974
▁lovely	-9.45062
▁answer	-9.45194
▁giant	-9.45408
▁wearing	-9.45569
▁teeth	-9.4578
▁rolled	-9.4598
▁confused	-9.46152
▁Together	-9.46364
▁Lisa	-9.46509
▁shop	-9.46602
▁tasted	-9.46753
▁dirt	-9.46979
▁gently	-9.47055
▁couch	-9.47321
▁rude	-9.47502
▁places	-9.4795
▁throw	-9.48165
▁spent	-9.48255
▁pretended	-9.48868
▁matter	-9.49302
▁feet	-9.49495
▁machine	-9.49519
▁smell	-9.4952
▁coin	-9.49803
▁wild	-9.50219
▁problem	-9.5022
▁faces	-9.50224
▁sack	-9.50241
▁corner	-9.50274
Good	-9.50571
▁write	-9.50589
▁path	-9.50603
▁ocean	-9.50814
▁wave	-9.51047
▁zoo	-9.51176
▁spider	-9.51241
▁Sometimes	-9.51325
▁building	-9.51584
▁oven	-9.51802
▁push	-9.51922
▁cookie	-9.52042
▁tomorrow	-9.52605
▁slow	-9.52856
▁bugs	-9.52877
▁trip	-9.53053
▁ladder	-9.53194
▁hiding	-9.53204
▁happen	-9.53322
▁helpful	-9.53327
▁picnic	-9.5375
▁furry	-9.53763
▁call	-9.5383
▁blew	-9.54248
▁cannot	-9.54298
▁last	-9.54442
▁talking	-9.5513
▁finish	-9.55309
▁drive	-9.55321
▁fighting	-9.5542
▁fur	-9.55452
▁smooth	-9.55605
▁puddle	-9.55782
ex	-9.56069
▁knee	-9.56085
▁pool	-9.56234
▁carrot	-9.56262
▁part	-9.56272
▁wore	-9.56323
▁calm	-9.56766
▁eventually	-9.56773
▁leaf	-9.56788
▁chocolate	-9.56802
▁cow	-9.56825
▁maybe	-9.57093
▁waiting	-9.57174
▁songs	-9.57717
▁chased	-9.57963
Tom	-9.58099
▁fixed	-9.58407
▁mind	-9.58706
▁large	-9.58894
▁string	-9.59073
▁cloud	-9.59131
▁barked	-9.59134
▁Everywhere	-9.59266
▁whistle	-9.59563
▁color	-9.59564
▁grab	-9.59655
My	-9.59844
▁shy	-9.60146
▁taste	-9.60184
▁plate	-9.60351
▁Teddy	-9.60379
▁Peter	-9.60415
▁hid	-9.608
▁creative	-9.61053
▁selfish	-9.6112
Please	-9.61232
▁carrots	-9.61357
▁knocked	-9.61709
▁carry	-9.61848
▁village	-9.6196
▁count	-9.62073
▁stone	-9.6219
▁Please	-9.62293
▁spread	-9.62297
▁neighbor	-9.62566
▁Whil	-9.6264
▁peaceful	-9.62855
▁missed	-9.62856
▁lay	-9.62963
▁line	-9.63049
▁jungle	-9.63206
▁kiss	-9.63342
▁necklace	-9.6337
▁embarrassed	-9.63511
▁plant	-9.63524
▁Little	-9.63526
▁letter	-9.63628
▁How	-9.63716
▁bell	-9.63972
▁spicy	-9.64126
▁cloth	-9.64199
▁shirt	-9.64383
▁forward	-9.64411
▁tells	-9.64454
▁shelf	-9.64542
▁creature	-9.6459
▁moon	-9.64672
▁save	-9.6472
▁hears	-9.64767
▁seat	-9.64825
▁splash	-9.64906
▁treats	-9.65241
▁tea	-9.65301
▁teach	-9.65576
▁tidy	-9.65689
▁empty	-9.66016
▁robot	-9.66125
▁legs	-9.66263
▁land	-9.66264
▁meet	-9.66426
▁jumping	-9.66452
▁gray	-9.66577
▁sharing	-9.66727
o	-9.66963
▁grew	-9.67162
ever	-9.67202
▁tightly	-9.67479
▁landed	-9.67608
▁sticks	-9.67724
▁Mummy	-9.6821
▁sheep	-9.68495
▁ashamed	-9.68562
Stop	-9.68855
▁almost	-9.69057
▁nods	-9.6916
▁Even	-9.69767
▁Leo	-9.70156
▁carried	-9.70247
▁understood	-9.70539
▁days	-9.70637
▁Alice	-9.70644
▁block	-9.7066
▁Johnny	-9.70687
▁kitten	-9.70858
▁yelled	-9.70863
▁stood	-9.70897
Ben	-9.70922
▁bath	-9.70943
▁drew	-9.71269
▁prince	-9.71339
▁meant	-9.71598
ose	-9.71821
▁sparkly	-9.72133
▁sail	-9.7235
▁decide	-9.72371
▁snacks	-9.72486
▁cook	-9.72587
▁vase	-9.72613
▁bored	-9.72756
▁ugly	-9.72792
▁protect	-9.73097
▁meadow	-9.73165
▁bus	-9.73207
▁disappointed	-9.73297
▁pizza	-9.73427
▁mountain	-9.73435
▁hours	-9.73604
▁honest	-9.73699
▁hospital	-9.73883
▁crab	-9.74144
▁breath	-9.74374
Sorry	-9.74412
▁puzzle	-9.74462
▁hidden	-9.74667
▁O	-9.7468
▁wash	-9.74729
▁band	-9.74771
▁shore	-9.74791
▁Mark	-9.74852
▁returned	-9.74931
▁cries	-9.74978
▁plants	-9.75021
Where	-9.75212
▁knowing	-9.75234
▁generous	-9.75303
▁Why	-9.75525
▁stand	-9.75586
▁rocket	-9.75609
▁easy	-9.75673
▁messy	-9.75921
▁standing	-9.76085
▁sleepy	-9.76269
▁group	-9.76287
▁poor	-9.7644
▁sighed	-9.76496
▁fancy	-9.76694
▁worm	-9.76718
▁sandwich	-9.76807
Are	-9.76954
▁thankful	-9.7715
▁waves	-9.77172
▁powerful	-9.77354
▁taught	-9.77604
▁present	-9.77734
▁bedroom	-9.77768
▁scarf	-9.77801
▁kissed	-9.77941
▁net	-9.78006
▁card	-9.78072
▁ring	-9.78386
▁boring	-9.78556
▁deer	-9.78745
▁these	-9.79029
▁polite	-9.79429
▁frustrated	-9.79479
▁tears	-9.79594
▁passed	-9.79717
▁shell	-9.79875
▁mysterious	-9.79892
▁often	-9.79911
a	-9.79986
▁yourself	-9.8012
▁Today	-9.80247
▁minutes	-9.80418
▁hop	-9.80452
▁sour	-9.80483
▁leg	-9.80649
▁determined	-9.80698
▁bridge	-9.80825
▁gate	-9.81326
▁expensive	-9.81399
▁mix	-9.81426
▁pig	-9.81494
▁dancing	-9.81522
▁gathered	-9.81713
▁finger	-9.81853
▁scissors	-9.81872
▁roll	-9.82083
▁saved	-9.82199
▁caterpillar	-9.82238
▁chest	-9.82305
▁wagged	-9.82344
▁closet	-9.82531
▁Go	-9.82762
▁Don	-9.82928
▁wolf	-9.82947
▁queen	-9.83237
▁grumpy	-9.833
▁lock	-9.83335
▁comfortable	-9.83515
▁tent	-9.83608
▁mistake	-9.83624
itty	-9.83659
▁Susie	-9.83681
▁packed	-9.83683
▁answered	-9.83996
▁crown	-9.84012
▁hopping	-9.84209
▁ship	-9.84222
▁working	-9.84391
▁excitement	-9.84489
▁Some	-9.84546
▁spin	-9.84674
▁mummy	-9.848
▁picks	-9.84829
▁chase	-9.85111
▁drawing	-9.85304
▁lit	-9.85455
▁vegetables	-9.85667
▁pay	-9.85741
▁bone	-9.85766
▁middle	-9.85959
Who	-9.86442
▁true	-9.8655
▁pain	-9.86628
▁lazy	-9.86637
▁taken	-9.86834
▁giggled	-9.86876
▁lose	-9.86895
▁ruined	-9.87053
▁medicine	-9.87054
▁feed	-9.87057
▁seek	-9.87098
▁eggs	-9.87272
▁nervous	-9.87401
▁wood	-9.87671
▁bathroom	-9.87732
▁police	-9.87913
▁smelly	-9.87983
▁fruits	-9.88103
▁mail	-9.88154
▁lift	-9.88371
▁asking	-9.88453
▁fake	-9.88579
▁sweetie	-9.88747
▁glass	-9.88747
▁sugar	-9.88835
▁tape	-9.88838
▁change	-9.89032
▁brush	-9.89074
▁number	-9.89338
▁feathers	-9.89346
▁roar	-9.89359
▁licked	-9.89468
▁especially	-9.8958
▁distance	-9.89653
▁body	-9.90012
▁stones	-9.90051
▁drank	-9.90135
▁gun	-9.90221
▁cage	-9.90285
▁walks	-9.90351
▁bake	-9.90459
▁wheel	-9.90521
▁pleased	-9.90632
▁nod	-9.90907
▁Eventually	-9.91035
▁splashed	-9.91093
▁fluffy	-9.91175
Help	-9.9144
▁calling	-9.91934
▁lying	-9.9205
Now	-9.92213
▁match	-9.92593
▁sailed	-9.92755
▁tie	-9.92791
▁fill	-9.92805
▁moving	-9.92827
▁glue	-9.92859
▁live	-9.92949
▁disappeared	-9.93105
▁noisy	-9.93341
▁respect	-9.93373
▁wrote	-9.93374
▁gets	-9.93439
▁become	-9.93554
▁clown	-9.93897
▁mirror	-9.9394
▁fine	-9.94125
▁flag	-9.9419
▁juicy	-9.94448
▁weak	-9.94549
▁covered	-9.9467
▁playground	-9.94914
▁test	-9.94923
▁pillow	-9.95129
▁towel	-9.95371
▁Bobby	-9.95373
▁rare	-9.95503
▁questions	-9.95534
▁ok	-9.95561
▁crawled	-9.95857
▁eye	-9.95964
▁jealous	-9.95986
▁skipped	-9.96328
▁board	-9.9645
▁father	-9.96601
▁joke	-9.967
▁pie	-9.96942
▁butter	-9.96946
▁eager	-9.97014
▁famous	-9.97129
▁cleaned	-9.97141
▁Ella	-9.97357
▁garage	-9.97476
▁End	-9.97494
▁incredible	-9.97584
▁measure	-9.98027
▁zoom	-9.98078
▁dogs	-9.98128
▁Mrs	-9.98282
▁hose	-9.98333
▁sword	-9.98472
▁clear	-9.98488
▁drum	-9.98609
▁bubbles	-9.98694
▁word	-9.9879
▁organized	-9.9887
▁happening	-9.98901
▁realised	-9.9911
▁tiger	-9.99129
▁branches	-9.99282
▁unusual	-9.9931
▁Pete	-9.99431
▁discovered	-9.99538
▁whale	-9.99803
▁once	-9.99993
▁soap	-10.0002
▁knight	-10.0011
▁knife	-10.0018
▁rich	-10.0018
▁elderly	-10.0022
▁shows	-10.0049
▁neck	-10.0107
▁louder	-10.0109
▁lamp	-10.0119
▁team	-10.0128
▁dig	-10.0135
▁bottom	-10.0145
▁shake	-10.0173
▁map	-10.0177
▁balance	-10.0182
▁Mandy	-10.0199
▁unique	-10.0202
▁colourful	-10.0202
▁tag	-10.0212
▁balls	-10.0215
and	-10.0232
▁balloons	-10.0234
▁offered	-10.0241
▁difficult	-10.0246
▁loyal	-10.0249
▁Blue	-10.0251
▁spun	-10.027
▁boxes	-10.0271
▁paw	-10.0285
▁added	-10.0287
▁ones	-10.0307
▁trucks	-10.0313
▁wrapped	-10.0314
he	-10.0315
▁content	-10.0327
▁barn	-10.0328
▁needs	-10.0338
▁berries	-10.035
▁kindness	-10.0351
▁chicken	-10.0355
▁banana	-10.0366
Well	-10.0367
▁breakfast	-10.0373
▁giving	-10.0374
▁log	-10.0379
▁Ellie	-10.0418
▁cross	-10.0434
▁bald	-10.0437
▁four	-10.0438
▁adventurous	-10.0444
▁choose	-10.0454
▁coins	-10.0459
▁mighty	-10.0465
▁wand	-10.0477
Here	-10.0485
▁managed	-10.0489
▁circle	-10.0494
▁yours	-10.05
▁lifted	-10.0501
▁laughs	-10.0509
▁pointing	-10.0531
▁wagon	-10.0542
▁thick	-10.0546
▁smoke	-10.0547
▁tough	-10.0559
▁dizzy	-10.0573
▁Bella	-10.0615
▁shape	-10.0616
▁thin	-10.063
▁harder	-10.063
▁dreamed	-10.0633
▁normal	-10.0633
▁falls	-10.0636
▁loudly	-10.0648
▁fat	-10.0658
▁bossy	-10.0663
▁belonged	-10.0665
▁impressed	-10.0672
▁extra	-10.0681
▁market	-10.0686
▁hurts	-10.0693
▁weird	-10.0723
▁search	-10.0741
▁icy	-10.075
▁wonder	-10.0758
▁pen	-10.0763
▁learning	-10.0765
▁miss	-10.0772
,”	-10.0781
▁Nemo	-10.0783
▁edge	-10.0787
▁against	-10.0795
▁figure	-10.0798
▁enjoying	-10.0802
▁belong	-10.0812
▁painting	-10.0817
▁slipped	-10.0823
▁collect	-10.0824
▁trust	-10.0834
▁ears	-10.0843
▁check	-10.0872
▁favourite	-10.0893
▁hats	-10.0921
▁Ducky	-10.0927
▁skin	-10.093
▁stubborn	-10.0946
▁foot	-10.0959
▁safely	-10.0963
▁fridge	-10.0987
▁space	-10.0995
▁turtle	-10.1008
▁rough	-10.1027
im	-10.1036
▁buttons	-10.1036
▁shells	-10.1048
▁happiness	-10.105
▁already	-10.1056
▁brilliant	-10.1061
▁circles	-10.1067
▁dinosaur	-10.1083
▁office	-10.1092
▁Ann	-10.1094
▁wake	-10.1101
▁foolish	-10.1112
▁clap	-10.1122
▁grown	-10.1128
▁bitter	-10.1142
▁sight	-10.1145
▁shout	-10.1181
▁sounded	-10.12
▁brothers	-10.1215
▁egg	-10.1217
▁mixed	-10.1218
▁clay	-10.1232
▁saying	-10.128
▁walls	-10.1281
▁cheerful	-10.1287
▁movie	-10.1289
▁goat	-10.1305
▁escape	-10.1312
▁My	-10.1314
▁means	-10.1315
▁Bobo	-10.1342
▁notice	-10.1346
▁kid	-10.1349
Me	-10.1374
▁smaller	-10.1381
▁dreams	-10.1381
▁island	-10.1389
▁crayon	-10.1394
▁guitar	-10.1398
▁nosy	-10.1408
▁poured	-10.1427
▁kick	-10.1429
Be	-10.1454
▁stronger	-10.1458
▁borrow	-10.1473
▁invited	-10.1477
▁exclaimed	-10.1478
▁nicely	-10.1492
▁useful	-10.1498
▁ear	-10.1499
▁dependable	-10.1503
▁roof	-10.1511
▁swan	-10.1513
▁suggested	-10.1515
▁Fred	-10.1516
▁reliable	-10.1522
▁Tweety	-10.1538
▁gold	-10.1558
▁proudly	-10.1559
▁tools	-10.156
▁counted	-10.1571
▁city	-10.1581
▁parrot	-10.159
He	-10.1592
▁step	-10.1596
▁showing	-10.1613
▁rose	-10.1617
▁bushes	-10.162
▁trunk	-10.1633
▁above	-10.1637
▁birdie	-10.1646
▁bags	-10.1652
▁fingers	-10.1661
▁Joey	-10.1666
▁tummy	-10.1668
▁frightened	-10.1672
▁joined	-10.1682
▁stumbled	-10.1685
They	-10.1686
▁kicked	-10.1701
▁spinning	-10.1703
▁fountain	-10.1703
▁stove	-10.1703
▁horn	-10.1707
▁dead	-10.1715
▁spoiled	-10.1723
▁locked	-10.1742
▁successful	-10.1751
▁No	-10.1758
▁themselves	-10.1766
▁explored	-10.1773
▁fierce	-10.178
▁wiped	-10.1796
▁using	-10.1798
▁brightly	-10.1801
▁obedient	-10.182
▁valuable	-10.1841
▁enormous	-10.1851
▁excitedly	-10.1856
▁ancient	-10.1861
▁yarn	-10.1869
▁rode	-10.187
▁Grandpa	-10.1871
▁pencil	-10.1885
▁scream	-10.1898
▁independent	-10.1901
▁cleaning	-10.1913
▁delicate	-10.1919
▁dough	-10.1925
▁Whenever	-10.1926
▁built	-10.1929
▁scare	-10.1948
▁reminded	-10.1979
▁bounce	-10.1981
▁Lola	-10.1985
▁practice	-10.1985
▁jam	-10.1991
▁popcorn	-10.2001
▁flute	-10.2007
▁fragile	-10.2023
▁lights	-10.203
▁shone	-10.2031
▁spray	-10.2036
▁boys	-10.2044
▁thoughtful	-10.2065
▁admired	-10.2067
▁knows	-10.2098
▁houses	-10.2103
▁wrap	-10.2119
▁Dave	-10.2122
▁hoop	-10.2135
▁grandpa	-10.2137
▁changed	-10.2171
▁pumpkin	-10.2179
▁camera	-10.2187
▁whispered	-10.2188
▁solve	-10.2194
▁act	-10.2209
▁painted	-10.2215
▁holds	-10.223
▁finding	-10.2235
▁jog	-10.2239
How	-10.2245
ly	-10.2261
▁Your	-10.2273
▁original	-10.2277
▁beak	-10.2283
▁thirsty	-10.2297
▁add	-10.2306
▁unknown	-10.2316
▁stupid	-10.2324
▁pass	-10.2325
▁dove	-10.233
▁shark	-10.2332
▁flashlight	-10.2373
▁playful	-10.2377
▁spend	-10.238
▁power	-10.2382
▁stairs	-10.2388
▁cone	-10.2388
▁sleeping	-10.24
▁wealthy	-10.2402
▁yet	-10.2403
▁raced	-10.2413
▁nurse	-10.2416
▁picking	-10.2422
▁ant	-10.2423
▁dolphin	-10.2435
▁angel	-10.2437
▁mole	-10.2442
▁zip	-10.2445
▁chose	-10.2451
▁bees	-10.2461
▁seeds	-10.2477
▁tank	-10.2485
▁cover	-10.2495
▁allowed	-10.25
▁toast	-10.2504
▁guilty	-10.2507
▁prize	-10.253
▁nature	-10.254
▁searching	-10.2544
▁metal	-10.2547
▁pan	-10.256
▁delighted	-10.2563
▁washed	-10.2574
▁clock	-10.2575
▁salad	-10.2575
▁George	-10.259
▁march	-10.2592
▁half	-10.2599
▁jolly	-10.26
▁To	-10.2601
▁Mike	-10.2603
▁rat	-10.2604
▁doesn	-10.2624
▁print	-10.2636
▁leaving	-10.2648
▁those	-10.2652
▁clumsy	-10.2661
See	-10.2673
▁rushed	-10.2679
▁telling	-10.2689
▁ow	-10.2689
▁dull	-10.2708
▁diamond	-10.2712
▁corn	-10.2712
▁numbers	-10.2736
▁hairy	-10.2749
▁missing	-10.2753
▁envelope	-10.2761
▁serious	-10.2762
▁flexible	-10.2764
▁forth	-10.2765
▁Toby	-10.2773
▁cart	-10.2776
▁terrible	-10.2777
▁modern	-10.2784
▁sauce	-10.2796
▁spilled	-10.2798
▁umbrella	-10.2815
A	-10.282
▁pirate	-10.282
▁view	-10.2826
▁ending	-10.2835
▁biggest	-10.2838
▁driving	-10.2845
▁hammer	-10.2851
▁barber	-10.2855
▁delight	-10.2855
▁beetle	-10.2885
▁kinds	-10.2887
▁jug	-10.2888
▁screen	-10.2898
▁class	-10.2899
▁peeked	-10.2903
▁engine	-10.2923
▁opens	-10.2925
▁popular	-10.2942
▁carrying	-10.2948
Go	-10.295
▁dreaming	-10.2951
▁handed	-10.2951
▁Alex	-10.296
▁tunnel	-10.296
▁jacket	-10.296
▁statue	-10.2961
▁spaghetti	-10.2962
▁cereal	-10.2966
▁friendship	-10.298
▁fresh	-10.2985
▁stage	-10.2993
▁tied	-10.3003
▁stops	-10.301
▁computer	-10.3017
▁scale	-10.3032
▁rubbed	-10.3033
▁Next	-10.3041
Ow	-10.305
▁week	-10.305
▁low	-10.3058
▁graceful	-10.3066
▁sink	-10.3067
▁wing	-10.3081
▁shocked	-10.3083
▁goose	-10.3099
▁hay	-10.3099
▁Polly	-10.3126
▁meal	-10.3127
▁crocodile	-10.3137
▁bracelet	-10.3138
▁stream	-10.3142
▁towers	-10.3164
▁crazy	-10.3187
▁regular	-10.3201
▁boats	-10.3202
▁collar	-10.3236
▁gasped	-10.3238
▁helps	-10.3238
▁witch	-10.3245
▁Andy	-10.325
▁handle	-10.3253
▁careless	-10.3259
There	-10.3263
▁imagined	-10.3266
▁Grace	-10.3291
▁impressive	-10.3294
▁trash	-10.3295
▁early	-10.3326
▁truth	-10.3339
▁aunt	-10.3342
▁cheap	-10.3344
old	-10.3345
▁crane	-10.3347
h	-10.3348
▁feather	-10.3353
▁advice	-10.3353
▁stranger	-10.3368
▁thinking	-10.337
▁spoke	-10.3394
▁rug	-10.3407
▁create	-10.3421
▁desk	-10.3463
▁beauty	-10.3476
▁Bear	-10.3478
▁ways	-10.3484
▁hang	-10.3486
▁celebrate	-10.3489
▁wheels	-10.3504
▁library	-10.3506
▁ingredients	-10.3524
▁bent	-10.3524
▁drop	-10.3525
▁fan	-10.3542
▁pigeon	-10.3544
▁suit	-10.3551
▁stickers	-10.3555
▁Fin	-10.3556
▁Paul	-10.3558
▁warned	-10.3559
▁growing	-10.3559
▁pale	-10.3559
▁uncomfortable	-10.3566
▁sofa	-10.3571
▁reading	-10.3578
▁butterflies	-10.3579
▁parade	-10.3594
▁Sophie	-10.3597
▁sparkled	-10.36
▁harmless	-10.3624
▁lemon	-10.3625
▁nut	-10.3636
▁sorts	-10.3637
▁jelly	-10.3646
▁gum	-10.3647
▁guard	-10.3657
▁competitive	-10.3669
▁sudden	-10.3698
▁uncle	-10.3702
▁penny	-10.3706
▁pretending	-10.3714
▁mailbox	-10.372
▁sandwiches	-10.3723
▁lizard	-10.3732
▁gem	-10.3751
▁counting	-10.3757
▁jumps	-10.3758
▁lead	-10.3772
▁slid	-10.3774
▁past	-10.3774
▁badly	-10.3777
▁letters	-10.3788
▁slides	-10.3799
▁flour	-10.3801
▁nuts	-10.3805
▁trap	-10.3809
▁patch	-10.3809
▁thunder	-10.3812
▁piano	-10.3813
▁mark	-10.3816
▁ahead	-10.3816
▁van	-10.3833
▁humble	-10.3842
▁cooking	-10.3848
▁sunflower	-10.3877
▁Tweetie	-10.388
aid	-10.3886
▁shoot	-10.3893
▁snuggled	-10.3897
▁sell	-10.3902
▁cocoa	-10.391
▁ignorant	-10.3913
▁shut	-10.392
▁station	-10.3924
▁intelligent	-10.3927
▁twirled	-10.3928
▁sadly	-10.393
▁placed	-10.3966
▁cupboard	-10.397
▁chance	-10.3979
▁persistent	-10.398
▁dug	-10.3988
▁cap	-10.3996
▁refused	-10.4004
▁pony	-10.4018
▁return	-10.4025
▁less	-10.4032
▁gloomy	-10.4033
▁Bill	-10.4034
▁pants	-10.4043
Give	-10.4045
▁order	-10.4046
▁rules	-10.4047
▁anxious	-10.4049
▁track	-10.4051
▁chasing	-10.4057
▁leash	-10.4071
▁Sandy	-10.4075
▁charming	-10.4078
▁fearful	-10.4087
▁shaking	-10.4088
▁chew	-10.4099
▁bull	-10.4113
▁Be	-10.413
▁cards	-10.4136
▁names	-10.4141
▁ordinary	-10.4144
▁blow	-10.4155
Yay	-10.4165
▁hippo	-10.418
▁pasta	-10.418
▁anywhere	-10.4184
▁pack	-10.4188
cream	-10.4216
up	-10.4218
▁son	-10.4223
▁gorilla	-10.4229
▁creatures	-10.4229
r	-10.4234
▁deaf	-10.4237
▁bark	-10.425
▁gifted	-10.4252
▁squash	-10.4258
▁purse	-10.4258
▁older	-10.4259
▁miserable	-10.4261
▁study	-10.4282
▁value	-10.4283
▁helmet	-10.4283
▁fear	-10.4294
▁bandage	-10.4302
▁jet	-10.4306
▁brighter	-10.4311
▁decorate	-10.4322
▁Give	-10.4342
▁practiced	-10.4346
▁soldier	-10.4346
▁alert	-10.4347
▁crawl	-10.4355
at	-10.4377
▁hung	-10.4382
▁case	-10.4397
▁ghost	-10.4436
Bye	-10.4436
▁starts	-10.4452
▁shine	-10.4456
▁shouts	-10.4457
▁compassionate	-10.4461
▁carpet	-10.449
▁bathtub	-10.4493
▁drawer	-10.4496
▁hook	-10.45
▁Millie	-10.4512
▁bounced	-10.4531
▁itself	-10.4531
▁trumpet	-10.4552
▁melon	-10.4569
▁spring	-10.457
▁may	-10.4578
▁turkey	-10.4578
▁disgusting	-10.4583
▁hunter	-10.4601
▁Before	-10.4603
▁jeep	-10.4607
▁pressed	-10.4618
▁filthy	-10.4624
▁barking	-10.4643
▁salt	-10.4651
▁octopus	-10.4655
it	-10.4661
▁tooth	-10.4665
▁skip	-10.4672
▁seem	-10.4672
▁question	-10.4672
▁restless	-10.4707
▁magnet	-10.4723
▁arrow	-10.4725
▁Buddy	-10.4726
▁stretched	-10.4727
▁envious	-10.473
▁tray	-10.4733
▁hurry	-10.4738
▁impatient	-10.4764
▁admire	-10.4764
▁needle	-10.4765
▁nowhere	-10.4765
▁pepper	-10.4765
▁afternoon	-10.4773
▁attractive	-10.4774
▁giggle	-10.4775
▁travel	-10.4778
▁lively	-10.4782
▁nobody	-10.4789
▁grabs	-10.4789
▁shoe	-10.479
▁five	-10.482
▁organize	-10.4821
▁Brownie	-10.4826
▁anyway	-10.4828
▁tool	-10.483
▁helpless	-10.4831
▁somewhere	-10.4856
▁Jerry	-10.4858
▁cricket	-10.4859
▁courage	-10.4861
▁sticker	-10.4882
▁windows	-10.4905
▁attic	-10.4917
▁club	-10.4944
▁pulls	-10.495
▁otter	-10.4956
▁stir	-10.4963
▁restaurant	-10.4968
▁cooked	-10.4977
▁ostrich	-10.4982
▁wishes	-10.4994
▁thief	-10.5
▁crack	-10.5001
▁design	-10.5001
se	-10.5003
▁chubby	-10.5017
▁cows	-10.5019
▁guess	-10.503
▁radio	-10.5037
▁further	-10.5043
▁sandbox	-10.5044
▁Everything	-10.5047
▁split	-10.5062
▁cheer	-10.5064
▁distant	-10.5078
▁volcano	-10.5093
▁respectful	-10.5093
▁square	-10.5116
▁Bunny	-10.5117
▁ten	-10.5124
▁Where	-10.5131
▁Henry	-10.5141
▁post	-10.5147
▁monkeys	-10.5169
▁alligator	-10.5178
▁pushes	-10.5178
▁Are	-10.5182
▁shield	-10.5187
▁moms	-10.5189
▁comb	-10.5189
Anna	-10.5192
▁paws	-10.5194
▁fireman	-10.52
▁stirred	-10.5216
▁goal	-10.5229
▁package	-10.523
▁t	-10.5235
▁switch	-10.524
▁fork	-10.5247
▁stuff	-10.5248
ate	-10.5252
▁sweater	-10.5256
▁ants	-10.5258
▁leopard	-10.5258
▁size	-10.5274
▁bicycle	-10.5283
▁cube	-10.5285
▁mug	-10.5288
▁frowned	-10.5296
▁Whiskers	-10.5297
▁stared	-10.5304
▁raven	-10.5305
▁Harry	-10.5313
▁rub	-10.5321
▁Charlie	-10.5323
▁wander	-10.5324
▁elevator	-10.5333
▁pebble	-10.5335
▁harsh	-10.5336
▁Annie	-10.5341
▁steps	-10.5343
▁modest	-10.5345
▁cardboard	-10.5356
▁lollipop	-10.5361
▁math	-10.5366
▁Maria	-10.5369
▁wheat	-10.537
▁helicopter	-10.5372
▁candle	-10.5379
▁seal	-10.5389
▁barrel	-10.539
▁notebook	-10.5391
▁rice	-10.5397
▁lions	-10.5418
▁lightning	-10.5418
▁behave	-10.5419
▁Look	-10.5432
▁hive	-10.5432
▁mill	-10.5434
▁adorable	-10.5438
▁sort	-10.5441
▁cop	-10.5442
▁heal	-10.5451
▁zebra	-10.5469
▁dessert	-10.547
▁microphone	-10.5476
▁relax	-10.5481
▁led	-10.5501
year	-10.5503
▁Smith	-10.5504
▁kangaroo	-10.5515
▁happier	-10.5516
▁soar	-10.5519
▁drawings	-10.5532
▁thread	-10.5543
▁mask	-10.5545
▁reward	-10.555
▁jokes	-10.556
▁Lee	-10.5562
▁tire	-10.5564
▁sheet	-10.5565
▁pour	-10.5576
▁object	-10.5579
▁quite	-10.5583
▁either	-10.5593
▁lid	-10.5594
▁sent	-10.5605
▁stack	-10.5615
▁glow	-10.5644
▁pole	-10.5648
▁record	-10.5649
▁vine	-10.5651
▁troubled	-10.5669
▁wire	-10.5674
▁tripped	-10.569
▁holes	-10.5696
▁steal	-10.5706
▁rod	-10.572
▁swinging	-10.5723
▁fold	-10.5725
▁riding	-10.5727
▁jellyfish	-10.5734
▁paid	-10.5741
▁roared	-10.5743
▁rescue	-10.5746
▁dishes	-10.5746
▁bikes	-10.5755
▁boots	-10.5756
▁listening	-10.5769
▁shadow	-10.5771
▁wallet	-10.578
▁checked	-10.5789
▁silver	-10.5794
▁marry	-10.5796
▁yell	-10.5796
▁clapping	-10.5799
▁forgave	-10.5799
▁peace	-10.5799
▁mama	-10.58
▁perform	-10.5835
▁mushroom	-10.5835
▁triangle	-10.5836
▁quick	-10.584
▁eraser	-10.5847
▁sock	-10.5851
▁available	-10.5857
▁message	-10.5864
▁speed	-10.5869
▁celery	-10.5882
▁shelter	-10.5889
▁neat	-10.59
▁pushing	-10.591
▁palace	-10.591
▁shopkeeper	-10.592
▁enthusiastic	-10.5927
▁point	-10.593
▁sailor	-10.5932
▁Lilly	-10.5934
▁costume	-10.5938
▁Papa	-10.596
▁beep	-10.5965
▁scooter	-10.5977
▁laser	-10.5977
▁grapes	-10.5986
▁falling	-10.5988
▁broccoli	-10.5995
▁onion	-10.5998
▁Will	-10.6002
▁alive	-10.6005
▁colours	-10.6013
▁shakes	-10.6014
▁bubble	-10.6017
▁jewel	-10.6026
Tim	-10.6027
▁crystal	-10.6033
▁tuna	-10.6046
▁softly	-10.6049
▁stretch	-10.605
▁knot	-10.605
▁trophy	-10.6051
▁polish	-10.607
▁putting	-10.6076
▁rubber	-10.6082
▁climbing	-10.6097
▁raft	-10.6098
▁raining	-10.6117
▁judge	-10.6126
▁send	-10.6136
▁mild	-10.6137
▁pipe	-10.6151
▁zoomed	-10.6155
▁starting	-10.6156
▁chalk	-10.6161
▁chain	-10.6162
▁visited	-10.6172
▁yacht	-10.6173
▁twig	-10.6178
▁frame	-10.618
▁cauliflower	-10.6181
▁unhappy	-10.6185
▁tube	-10.6188
▁backpack	-10.6188
▁pilot	-10.6194
▁Danny	-10.6197
▁ended	-10.6198
▁hoping	-10.6202
▁rolling	-10.6203
▁energy	-10.6213
▁penguin	-10.6216
▁basketball	-10.622
▁smells	-10.6232
▁knock	-10.6241
▁dive	-10.625
▁stamp	-10.626
▁hotel	-10.6267
▁reindeer	-10.6269
▁cactus	-10.627
▁laundry	-10.6271
▁cooler	-10.6276
▁summer	-10.63
▁dish	-10.6314
▁golf	-10.6316
▁cats	-10.632
▁trains	-10.6336
▁belt	-10.6338
▁shade	-10.6341
▁task	-10.6343
▁breaks	-10.6343
in	-10.6346
▁flies	-10.6347
▁quit	-10.6359
▁human	-10.6364
▁bloom	-10.637
▁spirit	-10.6385
▁papers	-10.6385
▁shrimp	-10.6403
▁Baby	-10.6404
▁danger	-10.6418
▁comet	-10.6419
▁sweetheart	-10.6419
▁tricks	-10.6423
▁Would	-10.6427
▁given	-10.6429
▁peek	-10.6432
▁coffee	-10.6438
▁hero	-10.6439
▁haircut	-10.6442
▁barks	-10.6442
▁peach	-10.6449
▁ha	-10.6454
▁airport	-10.6456
▁journal	-10.6456
▁cord	-10.647
▁pin	-10.6482
▁treasures	-10.6489
▁folder	-10.6494
▁cushion	-10.6498
▁Tweet	-10.6504
▁Maggie	-10.6509
▁oil	-10.6515
▁evening	-10.6517
▁gather	-10.653
▁stuffed	-10.6551
▁photo	-10.6561
▁resist	-10.6584
▁panda	-10.6591
▁ink	-10.6593
▁cups	-10.6594
▁drops	-10.66
▁marched	-10.6613
▁closely	-10.6634
▁pair	-10.6644
▁counter	-10.6653
▁leaned	-10.6659
▁trick	-10.666
▁wool	-10.6684
▁strawberry	-10.6698
▁learnt	-10.6699
▁porch	-10.6705
▁museum	-10.6712
▁ambulance	-10.6723
▁taxi	-10.6728
▁throws	-10.6737
▁diary	-10.6737
▁lives	-10.6739
▁spell	-10.6745
▁football	-10.6753
▁meat	-10.6756
▁bananas	-10.676
▁complete	-10.6769
▁imagine	-10.6769
▁cherries	-10.6778
▁faucet	-10.6784
▁swung	-10.6808
▁James	-10.6814
▁waving	-10.6821
▁rag	-10.6823
▁speak	-10.6831
▁mule	-10.6845
▁apologized	-10.6857
▁page	-10.6869
▁forgotten	-10.6883
▁violin	-10.6884
Max	-10.6889
▁plastic	-10.6891
▁powder	-10.6891
▁acorn	-10.6898
▁planet	-10.6898
the	-10.6899
▁bin	-10.6907
▁seed	-10.6921
▁theater	-10.6924
▁hockey	-10.6932
▁soccer	-10.6942
▁thanks	-10.695
▁reef	-10.6952
▁tomato	-10.6952
▁skeleton	-10.6955
▁painter	-10.6964
▁comfort	-10.6969
▁giraffe	-10.6983
▁baking	-10.6987
▁vet	-10.6991
▁vendor	-10.6994
▁Tony	-10.7028
▁wife	-10.7036
▁between	-10.7036
▁note	-10.7042
▁winter	-10.7047
▁created	-10.7051
▁repair	-10.7057
▁support	-10.706
▁axe	-10.7062
▁dust	-10.7063
▁marble	-10.7065
▁steak	-10.7069
Your	-10.7073
▁feelings	-10.7107
to	-10.711
▁wipe	-10.7117
▁explain	-10.7118
osie	-10.7122
▁motorcycle	-10.713
▁lime	-10.7131
▁iron	-10.7141
▁kitty	-10.7141
▁breeze	-10.7149
▁Instead	-10.7153
▁hut	-10.7154
▁temple	-10.716
▁minute	-10.717
▁peanut	-10.7171
▁shouldn	-10.7172
▁belongs	-10.7172
▁bears	-10.7176
▁pirates	-10.7179
▁Ted	-10.7196
▁soil	-10.7197
▁fields	-10.7201
▁lawyer	-10.7204
▁slept	-10.7204
▁eagerly	-10.7206
▁meeting	-10.7215
▁bulb	-10.7215
▁factory	-10.7237
▁sir	-10.7237
▁poke	-10.7242
▁yogurt	-10.7247
▁mixer	-10.7248
▁attention	-10.7249
▁shouting	-10.7253
▁points	-10.7255
▁slippery	-10.7258
▁fisherman	-10.7269
▁blowing	-10.7284
▁tap	-10.729
▁argue	-10.7293
▁lie	-10.7294
▁sunset	-10.7294
▁perfectly	-10.7296
▁remind	-10.7298
▁deliver	-10.7328
▁loop	-10.7336
▁unlock	-10.7344
▁glowing	-10.7347
▁cable	-10.7355
▁sprayed	-10.7385
▁napkin	-10.7387
▁avocado	-10.7388
▁twist	-10.7395
▁frogs	-10.74
▁armchair	-10.7402
▁maze	-10.7405
▁shovel	-10.7405
▁fishing	-10.742
▁kayak	-10.7433
▁glove	-10.7436
▁weather	-10.7443
▁zipper	-10.7455
▁player	-10.7477
▁celebrated	-10.7479
▁headed	-10.7486
▁flame	-10.7498
▁mechanic	-10.7503
Timmy	-10.7516
▁chickens	-10.752
▁video	-10.754
▁flea	-10.7544
▁greedy	-10.7551
▁Or	-10.7572
▁hedge	-10.7573
▁seeing	-10.7586
▁Bun	-10.7593
▁furniture	-10.7595
▁golden	-10.7597
▁shower	-10.7598
▁mystery	-10.7606
▁oyster	-10.7619
▁Clara	-10.763
▁veterinarian	-10.7637
▁Pat	-10.7645
▁parent	-10.7649
▁skull	-10.7667
▁Miss	-10.7673
▁film	-10.7678
▁imagination	-10.7686
▁toilet	-10.769
▁motor	-10.7691
▁sniffed	-10.7696
▁gas	-10.7708
▁petals	-10.771
▁heads	-10.7713
▁baseball	-10.7713
▁Here	-10.7716
▁welcomed	-10.7725
▁wags	-10.7733
▁chimney	-10.7745
▁curtain	-10.7753
▁memories	-10.7763
▁kingdom	-10.7776
▁hopes	-10.7779
▁lotion	-10.7789
▁writing	-10.7794
▁Mimi	-10.7803
▁hanging	-10.7814
▁finds	-10.7818
▁creek	-10.7842
▁blankets	-10.7842
▁pup	-10.7847
▁mop	-10.7859
▁fireplace	-10.7896
▁God	-10.7899
▁tear	-10.7905
▁coal	-10.7912
▁vroom	-10.7932
▁aeroplane	-10.7938
▁medal	-10.7948
▁cabin	-10.7949
▁rhinoceros	-10.7955
▁sticky	-10.7965
▁throwing	-10.7967
▁pit	-10.797
▁potato	-10.7977
▁dishwasher	-10.7994
▁burn	-10.801
▁popped	-10.8013
▁happens	-10.8015
▁shoulder	-10.8016
▁calls	-10.8029
▁follows	-10.8037
▁junk	-10.8039
▁burned	-10.8041
▁sunglasses	-10.8048
▁church	-10.8058
▁staff	-10.8064
▁ignored	-10.8069
▁shrugged	-10.8071
▁trail	-10.8077
▁squirrels	-10.8093
▁w	-10.8095
▁lawn	-10.8097
▁poem	-10.8099
▁dancer	-10.8111
Wait	-10.8124
▁flapped	-10.8129
▁collected	-10.8138
▁separate	-10.8153
ve	-10.8153
▁second	-10.8169
▁sailing	-10.8172
▁language	-10.8181
▁First	-10.819
▁skirt	-10.8193
Sam	-10.8193
▁crib	-10.8199
▁microscope	-10.8199
▁classroom	-10.82
▁battery	-10.8205
Because	-10.8211
▁sneak	-10.8235
▁veil	-10.8249
▁swamp	-10.8258
▁bouncing	-10.8259
▁dear	-10.8264
▁E	-10.8266
▁fought	-10.827
▁oak	-10.8278
▁igloo	-10.8303
▁pastry	-10.8306
▁quietly	-10.831
▁short	-10.8314
▁moves	-10.8314
▁mattress	-10.8316
▁oasis	-10.8329
▁worth	-10.8331
▁tug	-10.8342
▁tub	-10.8362
▁magazine	-10.8371
▁newspaper	-10.8372
▁vest	-10.8388
▁success	-10.84
▁True	-10.8407
▁mistakes	-10.8411
▁beef	-10.8412
▁blackboard	-10.8413
▁agree	-10.8417
▁eaten	-10.8421
▁dressed	-10.8423
▁knob	-10.8435
▁presents	-10.8446
▁stable	-10.845
▁makeup	-10.8456
▁pray	-10.8467
▁crawling	-10.8478
▁candles	-10.8489
▁horses	-10.8489
▁strength	-10.8497
▁lend	-10.8503
▁choice	-10.8516
▁alarm	-10.853
▁married	-10.8545
▁scolded	-10.857
▁sizes	-10.8584
▁discover	-10.8603
▁caring	-10.8604
▁investigate	-10.8604
Did	-10.8605
▁trusted	-10.8616
▁squeezed	-10.8617
▁serve	-10.8626
▁mosquito	-10.8631
▁fog	-10.8635
▁television	-10.8656
▁accepted	-10.8661
▁squeeze	-10.8677
▁symbol	-10.8697
▁berry	-10.8698
▁hall	-10.8703
▁radish	-10.8704
▁pine	-10.8704
▁kisses	-10.8723
▁ticket	-10.8727
▁melt	-10.8731
▁rake	-10.8738
▁display	-10.8745
▁See	-10.8745
▁Snowy	-10.8749
▁offer	-10.8757
▁ceiling	-10.8761
▁reaches	-10.8798
▁accept	-10.8798
▁pattern	-10.8814
▁splashing	-10.8815
▁Luckily	-10.8817
uby	-10.8824
▁relaxed	-10.8835
▁perfume	-10.8836
▁amazement	-10.8843
▁entered	-10.8846
▁gym	-10.8854
▁straight	-10.8854
▁coats	-10.8863
▁jewelry	-10.8867
▁opera	-10.888
▁blinked	-10.8881
▁shrink	-10.8897
▁earth	-10.8903
▁wandered	-10.8911
▁birdcage	-10.8919
And	-10.8934
▁holiday	-10.8941
▁licks	-10.8942
▁telephone	-10.8953
▁easily	-10.8955
▁apart	-10.8965
▁yucky	-10.8968
▁pill	-10.8982
▁mist	-10.8984
▁invite	-10.8984
▁luck	-10.8986
▁yoga	-10.9019
▁novel	-10.903
▁unpack	-10.9031
▁blood	-10.9035
▁nail	-10.9036
▁weigh	-10.9046
▁Tina	-10.9048
▁spear	-10.9048
▁bookcase	-10.9049
▁doors	-10.905
▁puddles	-10.9051
▁load	-10.9052
▁Buzz	-10.9059
▁sandcastle	-10.9068
▁blueberries	-10.907
▁freezer	-10.9085
▁exam	-10.9088
▁growled	-10.9098
▁waffle	-10.9107
▁hurting	-10.9116
▁claws	-10.9127
▁rise	-10.914
▁helper	-10.9142
▁mustache	-10.9147
▁bean	-10.9151
achel	-10.9168
▁times	-10.9171
▁However	-10.9175
atie	-10.9175
▁crash	-10.9177
▁disappear	-10.9191
▁keeping	-10.9196
▁pistol	-10.9199
▁raise	-10.92
▁file	-10.9201
▁matches	-10.9215
▁cliff	-10.922
▁ribbon	-10.9224
▁spark	-10.9225
▁crossed	-10.9235
▁trade	-10.9235
▁harbor	-10.925
▁wardrobe	-10.929
▁quarrel	-10.9291
▁surrender	-10.93
▁chairs	-10.9318
▁cabinet	-10.9319
▁chess	-10.9319
▁mint	-10.9322
▁bathe	-10.9323
▁anchor	-10.9327
▁Freddy	-10.933
▁dried	-10.9331
▁pinch	-10.9335
er	-10.9336
▁razor	-10.9372
▁below	-10.9394
ach	-10.9398
▁apron	-10.9398
▁puzzles	-10.9398
▁grill	-10.9428
▁Poppy	-10.9441
▁lab	-10.9441
▁warmth	-10.9445
▁plates	-10.9455
▁steam	-10.9485
▁improve	-10.9492
▁poked	-10.9502
▁dictionary	-10.9503
▁spade	-10.9505
▁scattered	-10.9518
▁captain	-10.9525
▁Dan	-10.953
▁boot	-10.9535
▁someday	-10.9548
▁since	-10.955
▁attach	-10.9551
▁fuel	-10.9555
▁blouse	-10.9562
▁pear	-10.9577
▁muffin	-10.9584
▁wine	-10.9587
▁skills	-10.959
▁castles	-10.9591
▁experience	-10.9601
▁safety	-10.9611
▁Help	-10.9619
▁People	-10.9633
▁spending	-10.9642
▁planes	-10.9644
▁lemonade	-10.965
▁cell	-10.9657
▁ignore	-10.9661
▁hearts	-10.9686
▁cared	-10.969
▁following	-10.9694
▁saving	-10.9695
▁cuddled	-10.9698
▁remove	-10.9703
▁country	-10.9706
▁dresses	-10.971
▁laughter	-10.9719
▁Ollie	-10.9723
▁thumb	-10.9724
▁Spike	-10.9733
Sara	-10.9736
▁Penny	-10.9748
▁Milly	-10.9748
▁musician	-10.9763
▁fallen	-10.978
▁snapped	-10.9814
▁myself	-10.9828
▁missile	-10.9847
▁sneeze	-10.9847
▁fastest	-10.9848
▁strawberries	-10.9856
Welcome	-10.986
▁bury	-10.9865
▁calendar	-10.9885
▁Who	-10.9896
▁understanding	-10.9904
▁tornado	-10.9926
▁luggage	-10.9939
▁buried	-10.9954
▁prevent	-10.9966
▁yawned	-10.997
Yuck	-10.9971
▁taller	-10.9988
▁reverse	-10.9992
▁immediately	-10.9995
▁beans	-10.9997
▁hadn	-10.9999
▁bother	-11.0002
▁jewels	-11.0009
▁sparkling	-11.001
▁appreciate	-11.0015
▁refrigerator	-11.0023
▁ringing	-11.0024
▁bravely	-11.0032
▁root	-11.0036
▁begged	-11.0047
▁earlier	-11.0051
▁bumped	-11.0055
▁destroyed	-11.007
▁screw	-11.0072
ups	-11.008
▁gear	-11.0081
▁tutor	-11.0101
▁settled	-11.0102
▁passport	-11.0114
▁worms	-11.0124
▁shampoo	-11.0124
▁infant	-11.0127
▁chamber	-11.0134
▁beamed	-11.0143
▁hanger	-11.0148
Thanks	-11.0157
▁spots	-11.016
eady	-11.0169
▁cartoon	-11.0171
▁prepare	-11.0184
▁chores	-11.0196
▁sparkle	-11.0196
▁ashtray	-11.02
▁snap	-11.021
▁Have	-11.0227
▁known	-11.0227
▁rail	-11.0231
▁surprises	-11.0234
▁breathe	-11.0261
▁cherry	-11.0266
▁examine	-11.0271
▁socks	-11.0271
▁destination	-11.0279
▁insect	-11.0288
▁supply	-11.0292
▁vacation	-11.0295
▁tongue	-11.0302
▁universe	-11.031
▁vanished	-11.0313
▁valley	-11.0317
▁washing	-11.0319
▁decorations	-11.0322
▁Betsy	-11.0324
▁pages	-11.0326
▁permission	-11.0338
▁praised	-11.0339
▁tide	-11.0348
▁pride	-11.0353
▁moments	-11.0356
▁hits	-11.0357
▁solved	-11.0363
▁bookshelf	-11.0368
▁Everyday	-11.0372
▁festival	-11.0407
▁d	-11.0425
▁scooped	-11.0429
▁deeper	-11.043
▁teaching	-11.0443
▁score	-11.0453
▁ornament	-11.0463
▁insisted	-11.0486
▁floated	-11.0504
▁Steve	-11.0505
▁quiz	-11.0514
▁Joy	-11.0515
▁sparkles	-11.0525
She	-11.0528
▁alright	-11.0531
▁difference	-11.0554
▁structure	-11.0569
▁cheek	-11.0574
▁thermometer	-11.0577
▁mailman	-11.0604
▁received	-11.0628
▁batter	-11.0629
▁daisy	-11.0633
▁chirping	-11.0635
▁rot	-11.0638
▁uniform	-11.0643
▁replace	-11.0644
▁enter	-11.0645
▁camp	-11.0646
▁license	-11.066
▁panic	-11.0665
▁floating	-11.0666
▁signs	-11.0668
▁patiently	-11.0668
▁drain	-11.0669
▁model	-11.0675
▁struggling	-11.0679
▁press	-11.068
Ok	-11.0692
▁provide	-11.0705
▁digging	-11.0709
▁pulling	-11.0714
▁cobweb	-11.0719
▁believed	-11.0727
▁law	-11.0732
ver	-11.0742
▁suppose	-11.0773
▁restore	-11.0809
▁collection	-11.0812
▁whisper	-11.0814
▁upstairs	-11.0817
▁buzzing	-11.0831
▁encouraged	-11.0836
▁ranch	-11.0844
▁bathrobe	-11.0858
▁measured	-11.0863
▁shooting	-11.0868
▁superhero	-11.0875
▁neighborhood	-11.0876
▁spoil	-11.0889
▁brain	-11.0944
▁port	-11.0946
▁sausage	-11.0949
▁firework	-11.095
▁whip	-11.0981
▁sits	-11.0984
▁grape	-11.0997
▁worse	-11.1002
▁none	-11.1005
▁subway	-11.1017
▁collecting	-11.1024
▁tease	-11.1029
▁label	-11.1039
▁approached	-11.1048
▁climbs	-11.1054
▁jail	-11.106
▁palm	-11.1062
▁Abigail	-11.1067
▁jazz	-11.11
▁massage	-11.1108
▁patterns	-11.1113
▁oranges	-11.1119
▁setting	-11.1126
▁melted	-11.113
▁dare	-11.1132
▁sprinkles	-11.1137
▁lumber	-11.1142
▁buckle	-11.1143
▁sip	-11.1146
▁succeed	-11.1149
▁accident	-11.1151
▁Brown	-11.1158
on	-11.1162
▁billboard	-11.1172
▁hills	-11.1176
▁sunrise	-11.118
▁exercise	-11.119
▁unite	-11.1194
▁airplane	-11.1219
▁weeks	-11.1223
▁shot	-11.1227
▁float	-11.1232
▁vehicle	-11.1234
▁remain	-11.1238
▁slice	-11.1241
▁rooms	-11.1245
▁wizard	-11.1254
▁twisted	-11.1259
▁gifts	-11.1265
▁meowed	-11.1287
▁bricks	-11.1309
▁torn	-11.133
▁discovery	-11.1342
▁jogging	-11.1347
▁destroy	-11.1369
▁scratch	-11.1379
▁automobile	-11.1381
▁watches	-11.1386
▁future	-11.1396
▁rabbits	-11.1405
▁poppy	-11.1412
ray	-11.1433
▁glowed	-11.1452
▁grey	-11.1464
▁manage	-11.1465
▁rhythm	-11.1478
▁university	-11.1478
▁soldiers	-11.148
▁elephants	-11.1505
▁bites	-11.1518
▁urge	-11.1524
▁grocery	-11.1543
▁mister	-11.1545
▁rush	-11.1545
▁ideas	-11.1559
▁stomach	-11.156
▁warning	-11.1563
▁actually	-11.1595
▁whistled	-11.1595
▁marbles	-11.1596
▁fixing	-11.1597
▁gust	-11.1601
nfortunately	-11.1619
Ouch	-11.1621
▁mall	-11.1628
▁pillows	-11.1628
▁parts	-11.1644
▁scratched	-11.1646
▁thrilled	-11.1659
▁remained	-11.1663
▁burning	-11.1663
▁observe	-11.1672
▁grinned	-11.1674
Would	-11.1684
uring	-11.169
▁surrounded	-11.1708
▁waste	-11.1709
▁S	-11.1713
▁paused	-11.1713
▁Nutty	-11.1742
Ha	-11.1751
▁weapon	-11.176
▁zipped	-11.1762
▁stadium	-11.1763
▁delay	-11.1767
▁nation	-11.1779
▁pigs	-11.1784
Mmm	-11.1787
▁hate	-11.1793
▁chirped	-11.1793
▁Sharing	-11.1794
▁yield	-11.1807
▁leak	-11.183
▁neighbour	-11.1844
▁Someone	-11.1857
▁drinking	-11.1864
▁receive	-11.1871
▁whistling	-11.1876
▁possible	-11.1896
▁racing	-11.1896
▁ordered	-11.1903
▁May	-11.1905
▁realize	-11.1921
▁decision	-11.1947
▁twigs	-11.1956
▁seats	-11.1956
One	-11.1964
emember	-11.1972
▁teaspoon	-11.1983
▁marching	-11.1986
▁sneezed	-11.1992
▁prayed	-11.1995
▁Luna	-11.2004
▁brings	-11.2015
▁Liz	-11.2022
▁laid	-11.2023
▁memory	-11.2047
▁invitation	-11.2051
▁hurricane	-11.2054
▁sliding	-11.2056
▁scatter	-11.2073
▁problems	-11.2076
▁tracks	-11.2079
▁cane	-11.2083
▁potatoes	-11.2083
▁waffles	-11.2083
▁crunchy	-11.2101
▁olive	-11.2105
▁petted	-11.2118
▁hated	-11.212
▁raised	-11.212
▁poison	-11.2152
▁crashed	-11.2157
▁cartoons	-11.2196
▁operation	-11.2215
▁Jo	-11.2216
ncle	-11.2217
▁mitten	-11.2226
▁repeat	-11.2233
▁skipping	-11.224
▁tomatoes	-11.2259
▁mineral	-11.2261
▁curled	-11.2276
▁watered	-11.2297
▁lily	-11.2303
is	-11.2309
▁screams	-11.2311
▁drinks	-11.2311
▁sunlight	-11.2312
▁continue	-11.2324
▁recognized	-11.2337
▁measuring	-11.2346
▁peanuts	-11.2349
▁safari	-11.2352
▁colour	-11.2356
▁velvet	-11.2363
▁circus	-11.2363
▁fireworks	-11.2367
▁chewed	-11.2373
▁disagreed	-11.2387
▁strangers	-11.2399
▁spaceship	-11.2407
henever	-11.241
▁war	-11.2431
seek	-11.2461
▁planted	-11.2463
▁gain	-11.2473
▁Chirpy	-11.2477
▁brick	-11.2477
▁shiver	-11.2496
▁twirl	-11.2502
▁kindly	-11.2503
▁equipment	-11.2506
▁easier	-11.2506
▁sidewalk	-11.2519
▁comfy	-11.2543
▁spoons	-11.2547
▁attached	-11.2587
▁disturb	-11.2589
eally	-11.2598
▁paints	-11.2613
▁admiring	-11.2615
▁happiest	-11.2616
▁complain	-11.262
▁Anne	-11.2625
▁blueberry	-11.2634
▁sings	-11.2649
▁folded	-11.2661
▁itch	-11.2664
▁bang	-11.2664
▁escaped	-11.2667
▁refreshed	-11.267
▁apologize	-11.2676
▁toes	-11.2688
oe	-11.2708
▁clearing	-11.2718
▁selling	-11.2733
▁earthquake	-11.2735
▁company	-11.2744
▁lands	-11.275
▁Moral	-11.2762
▁officer	-11.2767
▁bringing	-11.2768
Spot	-11.2779
▁price	-11.2782
▁Josh	-11.2784
▁fed	-11.2787
▁prepared	-11.2796
▁Sadly	-11.2799
▁revealed	-11.2802
▁lecture	-11.2821
▁copper	-11.2844
▁menu	-11.2846
▁beside	-11.2851
▁navy	-11.2855
▁trapped	-11.286
ting	-11.287
▁lips	-11.2874
▁bleeding	-11.2875
▁buildings	-11.2883
▁onwards	-11.2883
▁turning	-11.2892
▁mountains	-11.29
▁gloves	-11.2906
▁reminder	-11.2908
▁anytime	-11.2909
▁doggy	-11.2912
▁bump	-11.2917
Will	-11.2921
Dad	-11.2929
▁muddy	-11.2931
▁guessed	-11.2941
▁leather	-11.295
▁stripes	-11.2956
▁bones	-11.2956
▁sold	-11.2964
▁slip	-11.2973
▁precious	-11.2987
▁settle	-11.3016
▁weep	-11.3022
▁secrets	-11.3075
▁cuddle	-11.3082
▁herb	-11.3085
▁succeeded	-11.3088
▁gotten	-11.3098
▁steel	-11.3121
▁Sunny	-11.3127
▁Jamie	-11.3128
▁history	-11.313
nd	-11.3142
▁mouths	-11.315
▁keeper	-11.3177
▁catching	-11.3188
▁Sunday	-11.3192
▁h	-11.3192
▁news	-11.3195
▁remembers	-11.3201
▁freeze	-11.3211
▁brand	-11.3215
▁dinosaurs	-11.3224
▁Cat	-11.3232
▁monsters	-11.3236
▁style	-11.3252
▁overjoyed	-11.3256
▁served	-11.3258
▁permit	-11.3258
▁isn	-11.326
▁oats	-11.3277
▁Chloe	-11.328
▁vegetable	-11.3287
▁wisdom	-11.3296
▁everyday	-11.331
▁Tiny	-11.3318
▁gained	-11.3319
▁By	-11.3319
▁image	-11.3334
▁Floppy	-11.3336
▁cutting	-11.3345
▁punish	-11.335
▁perched	-11.3355
▁eagle	-11.3371
ucked	-11.3371
▁art	-11.3378
emy	-11.3384
▁David	-11.3395
▁waist	-11.3397
▁awe	-11.3404
▁rested	-11.3405
▁soared	-11.3411
▁shopping	-11.3415
▁rained	-11.3439
▁comforted	-11.3442
▁simple	-11.3453
▁bowed	-11.3467
▁wooden	-11.3479
▁printer	-11.3484
▁fetch	-11.3495
▁cakes	-11.3529
▁Lucky	-11.3541
▁wanting	-11.3543
▁stealing	-11.3581
▁whatever	-11.3582
▁row	-11.3582
▁request	-11.3599
▁pets	-11.3611
▁shadows	-11.3615
▁visiting	-11.3631
▁pies	-11.3646
▁creation	-11.365
▁brushed	-11.3654
▁downstairs	-11.3655
▁acorns	-11.3661
▁Something	-11.3663
▁hurried	-11.3667
▁wonders	-11.3674
▁agreement	-11.3681
▁waits	-11.3685
▁Nina	-11.3694
out	-11.3695
▁breaking	-11.3708
▁responsible	-11.3715
▁villagers	-11.3719
▁struggled	-11.3722
▁twirling	-11.3739
▁Hoppy	-11.3741
▁x	-11.3747
▁six	-11.3754
▁costumes	-11.3755
▁beneath	-11.3755
▁curiosity	-11.3756
▁sadness	-11.3758
▁disturbed	-11.3761
▁tip	-11.3764
▁ripped	-11.3777
▁underground	-11.3778
▁works	-11.3788
▁Julie	-11.3791
▁nails	-11.3793
▁bridges	-11.3801
▁tastes	-11.3804
▁weighed	-11.3824
▁pancakes	-11.3847
▁mice	-11.385
▁tremble	-11.3851
▁recognize	-11.387
▁Suzy	-11.388
▁ours	-11.3882
▁rang	-11.3885
▁firemen	-11.39
▁practicing	-11.39
▁Bubbles	-11.3905
▁ash	-11.3913
▁Santa	-11.3928
▁Betty	-11.3966
▁answers	-11.397
▁accidents	-11.3987
you	-11.3996
▁examined	-11.3999
Goodbye	-11.4006
▁Big	-11.4023
▁grandmother	-11.4027
▁Tilly	-11.403
▁stitch	-11.4038
ur	-11.4045
▁beds	-11.4058
▁knelt	-11.4067
▁argued	-11.4068
▁writes	-11.4073
▁decorated	-11.4075
▁lets	-11.4081
looking	-11.4086
▁died	-11.4107
▁event	-11.4123
▁weight	-11.4151
▁network	-11.4161
▁zero	-11.4203
▁owned	-11.4218
▁prune	-11.4221
▁yelling	-11.4224
▁lemons	-11.4235
▁Jessie	-11.4241
▁soak	-11.4244
Daddy	-11.4245
▁mission	-11.425
▁flood	-11.425
▁Like	-11.4256
▁boss	-11.4258
▁spit	-11.4261
▁ruin	-11.4268
▁tune	-11.4274
▁appear	-11.4279
▁pinched	-11.4288
▁exit	-11.4293
go	-11.431
▁release	-11.4319
▁claps	-11.4325
▁winning	-11.4325
Not	-11.4335
Yum	-11.4353
▁neighbors	-11.4353
▁Beth	-11.4362
▁pastel	-11.4368
▁frown	-11.438
▁wondering	-11.4381
▁exactly	-11.4389
▁traffic	-11.4389
▁jogged	-11.4389
▁wagging	-11.4389
▁stirring	-11.439
es	-11.4399
▁studied	-11.4411
▁Abby	-11.4412
▁loose	-11.4421
p	-11.4422
▁pitch	-11.4423
▁zooming	-11.4424
▁surf	-11.4434
▁wreck	-11.4471
▁satisfied	-11.4477
▁tugged	-11.4487
▁challenge	-11.4489
▁olives	-11.4492
▁bunnies	-11.4499
▁oxygen	-11.4499
▁cape	-11.4508
▁spiders	-11.453
▁beat	-11.4532
▁underneath	-11.4543
▁unlocked	-11.4552
▁tour	-11.456
▁strip	-11.4588
▁fort	-11.4602
▁slapped	-11.4611
her	-11.4612
▁Claire	-11.4613
▁tickets	-11.4615
▁fascinated	-11.4632
▁suffer	-11.4649
▁shivering	-11.4681
▁competition	-11.4703
▁stretching	-11.4708
oom	-11.471
▁punished	-11.4727
▁Hannah	-11.4727
▁neighbourhood	-11.4745
▁planned	-11.4745
an	-11.4766
▁protected	-11.4771
▁doctors	-11.4772
▁gathering	-11.4774
Happy	-11.4776
▁lines	-11.4787
▁properly	-11.479
▁Lulu	-11.4792
▁unicorn	-11.4793
▁Afterwards	-11.482
▁pedal	-11.4829
▁mittens	-11.483
▁supplies	-11.4836
▁emergency	-11.4836
▁items	-11.4838
▁landscape	-11.4841
▁discuss	-11.4851
▁lick	-11.4859
thank	-11.4904
▁ruler	-11.4912
▁For	-11.4914
▁scoop	-11.4925
▁Susan	-11.4929
▁keys	-11.4938
▁soaring	-11.4945
or	-11.4946
▁fashion	-11.4953
▁Pip	-11.496
▁control	-11.4961
▁Coco	-11.4967
Mama	-11.4981
abbit	-11.4984
▁shoulders	-11.4988
▁markers	-11.4996
▁frosting	-11.4996
▁bouncy	-11.4997
▁contain	-11.5015
▁instructions	-11.5021
▁struck	-11.5033
▁nicer	-11.5039
▁rides	-11.5065
▁peaches	-11.5068
▁snail	-11.5071
▁loaded	-11.5075
▁printed	-11.509
▁touching	-11.5099
▁sights	-11.5107
▁increase	-11.5109
Or	-11.5129
Mia	-11.5132
▁regret	-11.5133
▁barely	-11.5136
▁Carl	-11.514
▁An	-11.514
▁budge	-11.515
▁muscles	-11.5171
▁stole	-11.5175
▁yawn	-11.5175
▁lied	-11.5181
▁victory	-11.5184
▁silence	-11.5185
▁mixing	-11.5201
▁applauded	-11.5211
▁hi	-11.5219
▁ladybug	-11.5237
▁frozen	-11.5237
▁buckets	-11.5253
▁piles	-11.5259
▁east	-11.5272
▁Thomas	-11.5282
▁ourselves	-11.5282
▁teasing	-11.5303
▁rubbing	-11.5304
▁pop	-11.5309
▁introduce	-11.5319
was	-11.5321
▁giggling	-11.5326
▁men	-11.533
▁soaked	-11.5357
▁burrow	-11.5358
▁marks	-11.5372
▁bunch	-11.5375
▁Mira	-11.5376
▁voices	-11.538
▁outdoors	-11.538
▁rocked	-11.5398
▁flap	-11.54
▁pockets	-11.5401
▁surface	-11.5418
▁prettiest	-11.5422
▁released	-11.5434
▁completed	-11.5449
▁brushes	-11.5454
▁pouring	-11.5455
▁tickle	-11.5466
▁c	-11.5468
▁vowed	-11.547
▁tonight	-11.5476
▁lip	-11.5481
▁p	-11.5488
▁purred	-11.5497
▁Frank	-11.5519
▁poking	-11.552
▁demanded	-11.5522
▁sting	-11.5522
▁bloomed	-11.553
▁planets	-11.5555
▁bye	-11.5564
▁pears	-11.5579
▁winner	-11.5581
▁camping	-11.5598
▁discovering	-11.5599
▁sport	-11.56
▁Hop	-11.5606
”.	-11.5611
▁guns	-11.5615
▁recommend	-11.5616
▁crow	-11.5627
▁baked	-11.5638
▁obey	-11.5647
▁babies	-11.5667
▁catches	-11.5695
▁urged	-11.5709
▁strings	-11.571
▁prints	-11.5712
▁sighs	-11.5716
▁mentioned	-11.5719
away	-11.5733
▁west	-11.5734
▁parked	-11.5736
▁season	-11.5736
▁muffins	-11.5763
▁movies	-11.5764
use	-11.5766
▁Did	-11.578
▁singer	-11.5785
▁sweeties	-11.5794
▁loving	-11.5801
▁roaring	-11.5808
▁draws	-11.5826
▁sigh	-11.5828
▁herbs	-11.5828
▁screaming	-11.583
▁rainbows	-11.5836
▁Jenna	-11.5845
▁result	-11.5853
”	-11.5862
▁guys	-11.5882
un	-11.5937
▁eight	-11.594
▁Jones	-11.5944
▁ranger	-11.5977
▁passing	-11.5981
▁homes	-11.6009
▁sides	-11.6018
▁sisters	-11.6021
▁stamps	-11.6038
▁balancing	-11.6046
▁cones	-11.6055
▁Both	-11.6057
▁studying	-11.6057
▁marriage	-11.6058
▁chips	-11.6064
▁steep	-11.6069
▁Adam	-11.6075
▁bottles	-11.6092
▁Lizzy	-11.6099
▁matched	-11.61
▁curly	-11.6125
▁sorted	-11.6127
▁highest	-11.6132
▁fabric	-11.6136
▁Matt	-11.6144
▁sore	-11.615
▁strike	-11.6157
▁gazed	-11.6157
▁horns	-11.616
▁kicking	-11.6163
▁pearl	-11.6165
▁reluctantly	-11.6176
▁ribbons	-11.6176
▁patience	-11.6178
▁sausages	-11.6182
▁nightmare	-11.619
▁powers	-11.6192
▁contest	-11.6196
▁shelves	-11.6203
▁shivered	-11.6208
▁machines	-11.622
▁Stop	-11.6221
▁fault	-11.6227
▁hugging	-11.6231
▁zigzag	-11.6231
▁goals	-11.6235
▁Linda	-11.6258
▁drift	-11.6266
▁wedding	-11.6271
▁waiter	-11.6284
▁bank	-11.6306
▁shock	-11.6325
▁acted	-11.6335
▁pebbles	-11.6342
▁effort	-11.6345
▁broom	-11.6353
▁plenty	-11.6359
ayla	-11.637
▁web	-11.6371
▁dragons	-11.6373
▁Luke	-11.6387
▁drives	-11.6409
▁Cindy	-11.6413
▁b	-11.6419
▁repeated	-11.6419
▁goodnight	-11.6425
▁matching	-11.6431
▁curtains	-11.6435
▁figured	-11.6438
▁twinkling	-11.644
▁solution	-11.6455
▁included	-11.648
▁slimy	-11.6493
▁regretted	-11.6494
▁policeman	-11.6495
▁chewing	-11.6504
Is	-11.6504
▁Always	-11.6508
▁situation	-11.6509
▁dusty	-11.6512
▁Jeff	-11.6522
▁introduced	-11.6533
▁Tuesday	-11.6537
▁include	-11.6566
▁blooming	-11.6583
▁sorting	-11.6586
▁Wednesday	-11.6591
▁recorded	-11.6615
ay	-11.6622
▁Slowly	-11.6629
▁growl	-11.6664
▁stair	-11.6679
oh	-11.671
▁flags	-11.6715
hello	-11.6725
▁Suzie	-11.674
▁Milo	-11.6749
▁paintings	-11.6757
▁penguins	-11.676
▁rocking	-11.6761
▁librarian	-11.6766
▁dentist	-11.6769
▁cheering	-11.6777
est	-11.6784
▁truly	-11.6794
▁allow	-11.6797
▁rescued	-11.6799
?".	-11.6802
▁spraying	-11.6808
▁oat	-11.6813
eep	-11.6816
▁awesome	-11.6822
▁luxury	-11.6823
▁prunes	-11.6823
▁Sure	-11.6839
▁sticking	-11.6844
Yeah	-11.6844
▁staring	-11.6851
▁completely	-11.6852
▁beard	-11.6864
▁written	-11.6877
▁caused	-11.6884
▁homework	-11.6889
▁zookeeper	-11.6896
▁towels	-11.6904
▁hunt	-11.6919
▁honk	-11.6921
▁arrive	-11.6923
▁roots	-11.6927
▁arguing	-11.6934
▁wandering	-11.6936
▁growling	-11.6937
▁agrees	-11.6953
▁importance	-11.6962
▁Christmas	-11.6962
▁creating	-11.6963
▁throat	-11.6983
▁rid	-11.6988
▁unexpected	-11.6989
▁trembling	-11.699
▁Lizzie	-11.6995
▁spill	-11.7
John	-11.7008
▁direction	-11.7009
▁pupil	-11.7011
▁stroke	-11.7017
▁Jazz	-11.702
▁bravery	-11.7031
▁flat	-11.7037
Mum	-11.7043
▁dared	-11.7043
▁suc	-11.7058
▁shined	-11.7059
▁crackers	-11.7063
Mummy	-11.7075
▁workers	-11.7105
▁quack	-11.7123
round	-11.7123
▁pretends	-11.7125
▁entire	-11.7131
▁keeps	-11.7135
▁struggle	-11.7137
▁glitter	-11.7137
Exc	-11.7147
▁reaching	-11.7159
▁knowledge	-11.7161
▁heat	-11.7161
▁kneeled	-11.7167
▁lean	-11.7167
▁heel	-11.7171
▁Leave	-11.7173
over	-11.7184
▁eats	-11.7206
▁confident	-11.7219
▁cast	-11.7224
▁delivery	-11.724
▁wa	-11.7243
▁exhausted	-11.7248
▁expected	-11.7257
▁motion	-11.7273
▁ventured	-11.7278
▁organizing	-11.7278
▁belly	-11.729
▁healed	-11.7294
▁scales	-11.7307
▁Bye	-11.7308
▁siren	-11.7331
▁leader	-11.7333
▁Gigi	-11.7341
▁cuts	-11.7342
▁crumbs	-11.7346
▁encourage	-11.7355
▁becoming	-11.7357
▁Lena	-11.7373
▁usual	-11.7379
▁wires	-11.7383
Just	-11.7387
▁inviting	-11.7394
▁pajamas	-11.7395
▁Johnson	-11.7396
▁baker	-11.7424
▁worries	-11.7437
▁applaud	-11.7453
▁storekeeper	-11.7454
ar	-11.7461
▁united	-11.7476
▁boom	-11.748
▁relief	-11.7483
▁Pandy	-11.7485
▁packing	-11.7497
▁safer	-11.75
▁Two	-11.7502
▁Buzzy	-11.7503
▁lung	-11.7525
▁flames	-11.7536
▁suitcase	-11.7537
▁rolls	-11.7547
▁Dolly	-11.7549
▁flash	-11.755
▁bat	-11.7552
▁Julia	-11.7562
ake	-11.7566
▁project	-11.7566
Sometimes	-11.7572
day	-11.7572
▁polishing	-11.7582
▁traveled	-11.7589
▁weren	-11.7592
Bad	-11.7598
▁fairies	-11.7605
▁peck	-11.7628
▁blink	-11.765
▁roads	-11.7658
▁dolphins	-11.7659
▁prayer	-11.7664
▁vanish	-11.7689
▁disagree	-11.7694
▁radishes	-11.7695
▁peeking	-11.7703
▁worker	-11.7703
▁slap	-11.771
▁lap	-11.7723
▁quacked	-11.7728
▁Fox	-11.7754
▁startled	-11.7759
▁Finn	-11.7765
▁valued	-11.7765
▁misses	-11.7766
▁countryside	-11.7785
▁pencils	-11.7797
▁reveal	-11.7797
▁foods	-11.7798
Fine	-11.7805
▁melting	-11.7825
▁itchy	-11.7826
▁crabs	-11.7843
▁groceries	-11.7846
▁usually	-11.7847
▁Jessica	-11.7847
▁dragg	-11.7852
▁pat	-11.786
▁snakes	-11.7868
Then	-11.7873
▁interested	-11.7878
▁wiggled	-11.7883
When	-11.7893
▁Good	-11.7896
▁restored	-11.7899
▁fuzzy	-11.7908
as	-11.7924
▁removed	-11.7932
▁opinion	-11.7935
▁lamb	-11.7937
all	-11.7944
▁Tara	-11.7945
▁flavor	-11.7963
▁desert	-11.7963
▁balanced	-11.7972
▁twinkle	-11.7985
▁super	-11.8001
▁winked	-11.8007
▁seems	-11.801
▁photos	-11.8017
▁opening	-11.8018
▁cracked	-11.8018
long	-11.8029
▁everybody	-11.8034
▁seesaw	-11.804
▁sneaky	-11.8052
▁resting	-11.8084
▁observed	-11.8084
▁particular	-11.8096
▁seven	-11.8102
▁sweets	-11.8121
▁hissed	-11.8125
▁kneel	-11.8126
▁sprinkle	-11.8138
▁princesses	-11.8146
▁rockets	-11.8154
▁tickled	-11.8173
▁cub	-11.8173
▁copy	-11.8178
▁activities	-11.8192
rept	-11.8208
▁pastels	-11.8222
▁signed	-11.8236
▁swooped	-11.8255
room	-11.8277
▁snowballs	-11.8295
▁crowd	-11.8296
▁Follow	-11.8299
▁Doggy	-11.8301
▁poems	-11.8304
▁rubs	-11.831
▁tractor	-11.8321
▁trips	-11.8324
▁single	-11.8328
▁marker	-11.8328
▁pots	-11.833
▁knights	-11.8334
▁cause	-11.8337
▁adding	-11.8342
▁beads	-11.8358
▁replaced	-11.8374
▁remote	-11.8384
▁coloured	-11.8388
▁stolen	-11.8396
▁warn	-11.8399
▁provided	-11.8407
▁Sophia	-11.8421
▁farther	-11.8423
▁stare	-11.8424
▁Th	-11.8427
▁firefighters	-11.8429
▁tricked	-11.8432
▁Larry	-11.8449
▁Happy	-11.846
▁roses	-11.846
▁however	-11.8477
▁magnets	-11.8477
▁Watch	-11.8478
hat	-11.8479
▁cashier	-11.8482
▁daisies	-11.8483
▁Emmy	-11.8484
▁staying	-11.8489
▁twin	-11.8509
▁sandcastles	-11.8519
▁cough	-11.8525
▁paddled	-11.8525
▁spike	-11.8542
▁badge	-11.8547
▁harm	-11.8549
▁inch	-11.8555
▁cubes	-11.8558
▁meow	-11.8565
my	-11.8566
▁pastries	-11.8581
▁celebration	-11.8582
▁Jacob	-11.8586
▁Days	-11.8595
▁bar	-11.8602
▁D	-11.8611
▁nectar	-11.8647
▁sobbed	-11.8652
▁Enjoy	-11.8656
▁awake	-11.8663
Jack	-11.8681
▁Many	-11.8685
▁colored	-11.87
▁Nick	-11.8707
▁rule	-11.8716
▁Earth	-11.8717
▁Everybody	-11.872
▁ago	-11.8731
▁gaze	-11.8738
▁filling	-11.8739
▁protecting	-11.8741
▁squealed	-11.8749
▁darkness	-11.8749
▁tallest	-11.8754
▁lollipops	-11.8761
▁marked	-11.8775
▁bumpy	-11.8795
▁owners	-11.8795
▁splashes	-11.8797
▁talented	-11.882
▁rings	-11.8831
▁reply	-11.8837
▁minerals	-11.884
ite	-11.8843
▁faced	-11.885
▁cautiously	-11.885
▁Maya	-11.8884
▁yourselves	-11.8884
▁texture	-11.8888
Tommy	-11.8897
▁younger	-11.8897
obby	-11.8904
▁glasses	-11.8908
▁Put	-11.8911
▁beyond	-11.8918
▁polished	-11.8935
▁entrance	-11.8941
▁Nothing	-11.8941
loved	-11.8943
▁explorers	-11.8953
▁den	-11.8967
▁directions	-11.8998
▁Water	-11.9003
▁peel	-11.9015
▁fluttered	-11.9025
▁forehead	-11.9027
▁logs	-11.9032
▁wipes	-11.9032
▁actions	-11.9032
▁sense	-11.9037
▁families	-11.9056
▁chuckled	-11.9057
▁Olive	-11.9058
▁H	-11.9082
▁masks	-11.9088
▁yesterday	-11.9093
▁greet	-11.9094
▁helmets	-11.9096
▁gems	-11.9111
oar	-11.9132
▁somebody	-11.9132
▁speaking	-11.9138
▁wow	-11.9142
▁seeker	-11.9142
▁tricky	-11.9153
▁pedals	-11.9158
▁joking	-11.9162
▁sew	-11.9174
▁blows	-11.9202
▁miles	-11.9202
▁beginning	-11.9204
▁Pinky	-11.9204
▁wink	-11.9212
▁swims	-11.9215
▁stem	-11.922
▁ripe	-11.9221
▁froze	-11.9222
ip	-11.9223
▁liquid	-11.9237
▁achieve	-11.9258
▁covers	-11.9258
▁buying	-11.9267
▁parties	-11.927
▁dots	-11.9277
▁kites	-11.929
▁bars	-11.9296
me	-11.9299
▁sailboat	-11.931
▁paddle	-11.933
▁Get	-11.9337
▁determination	-11.9339
▁mushrooms	-11.934
▁scaring	-11.9347
▁hider	-11.9349
▁bumps	-11.9349
▁insects	-11.9356
▁recording	-11.9357
▁Out	-11.936
▁candies	-11.9375
▁scarves	-11.9375
▁handful	-11.9376
▁cheeks	-11.9387
▁folding	-11.9391
▁youth	-11.9399
▁pause	-11.9404
▁Sparky	-11.9415
▁Mikey	-11.9418
▁leading	-11.9424
▁naps	-11.9473
▁giraffes	-11.9491
▁knocks	-11.9493
▁mixture	-11.9496
▁lighter	-11.9507
▁tangled	-11.9521
T	-11.9524
obert	-11.9551
▁seagull	-11.9563
▁clowns	-11.9564
▁weeping	-11.9564
▁videos	-11.959
▁pouted	-11.9594
▁recommended	-11.96
▁piggy	-11.9608
bye	-11.9609
boo	-11.961
▁un	-11.9619
ara	-11.9619
▁improved	-11.9622
▁deal	-11.9637
▁lower	-11.9638
▁calmed	-11.9679
▁rusty	-11.9682
▁Lia	-11.9685
▁cupcakes	-11.9694
Great	-11.9698
▁Laura	-11.9708
▁choices	-11.9717
▁paying	-11.9728
▁fever	-11.9732
▁salty	-11.9735
▁expect	-11.9736
▁pleasure	-11.9748
▁bakery	-11.9754
▁arrows	-11.9766
▁bowls	-11.9769
▁tasks	-11.9775
Th	-11.978
▁ruining	-11.9783
▁smiley	-11.9812
▁bedtime	-11.9815
▁celebrating	-11.9815
▁diving	-11.9815
▁widened	-11.9816
▁hesitated	-11.9816
▁knees	-11.9822
▁learns	-11.9825
▁Jacky	-11.9827
eered	-11.9842
alph	-11.9848
▁snowmen	-11.9853
▁rumble	-11.9854
▁Gina	-11.9859
▁afterwards	-11.9861
▁cost	-11.987
▁drums	-11.9875
Next	-11.9881
▁wrist	-11.9901
▁outfit	-11.9904
▁flapping	-11.9928
▁smarter	-11.9937
▁yells	-11.994
▁closes	-11.9942
▁uses	-11.9953
▁behaved	-11.9955
▁wasted	-11.9966
▁M	-11.9988
▁boo	-12
▁avoid	-12.0001
▁Binky	-12.0007
▁talent	-12.001
▁C	-12.0031
▁impossible	-12.0081
▁Mabel	-12.0081
▁hallway	-12.0092
▁unpacked	-12.0095
▁wears	-12.0113
▁B	-12.0115
▁deserve	-12.012
▁stomped	-12.0121
we	-12.0135
ery	-12.0139
▁threat	-12.0145
▁achieved	-12.0171
iki	-12.0171
▁Bluey	-12.0177
▁delivered	-12.0178
▁acting	-12.0188
st	-12.0192
▁materials	-12.0236
▁Wally	-12.0236
▁indeed	-12.0237
▁demand	-12.0238
▁jackets	-12.025
▁squares	-12.0256
obbie	-12.027
▁teache	-12.0273
▁raindrops	-12.0279
▁objects	-12.0284
▁kicks	-12.0291
▁chefs	-12.0329
▁guy	-12.0334
▁basement	-12.0354
▁scratches	-12.0359
▁siblings	-12.036
▁complaining	-12.0361
▁Frosty	-12.0363
▁complained	-12.0364
▁trampoline	-12.0374
▁creamy	-12.0389
▁pointy	-12.0393
▁lettuce	-12.0394
aren	-12.0394
▁Princess	-12.0399
▁losing	-12.0401
▁Abbie	-12.0403
Ah	-12.0411
nuck	-12.0415
▁scrubbed	-12.0434
▁Sadie	-12.0438
▁June	-12.0438
▁Momo	-12.044
▁ornaments	-12.0452
▁sale	-12.0465
▁travelled	-12.0475
▁fluttering	-12.0476
▁secure	-12.0501
▁darker	-12.0514
▁Martha	-12.0516
▁'	-12.0523
▁teased	-12.0543
en	-12.0544
▁Todd	-12.0554
▁creativity	-12.0555
▁puppies	-12.0555
▁consequences	-12.0558
▁discussed	-12.0562
ob	-12.0565
▁Aunt	-12.057
Today	-12.0582
Shh	-12.0591
▁neither	-12.0595
▁Pam	-12.0598
▁pans	-12.0612
▁tigers	-12.0616
▁patte	-12.0621
▁wrapping	-12.0637
▁stool	-12.064
▁merry	-12.0643
▁skill	-12.0646
▁performance	-12.0652
▁needles	-12.0652
▁glee	-12.0676
▁Sorry	-12.0679
To	-12.0689
▁includ	-12.0695
▁chop	-12.0697
▁screws	-12.0699
▁Jess	-12.0715
▁stung	-12.0717
▁gracefully	-12.0722
one	-12.0725
▁third	-12.0734
▁raincoat	-12.0736
▁tiptoed	-12.0759
▁shirts	-12.0759
▁burst	-12.0776
▁source	-12.0778
▁wraps	-12.0782
▁Not	-12.0789
uick	-12.0795
▁cuddly	-12.08
Meow	-12.0802
▁meals	-12.0825
Whee	-12.0827
▁dollars	-12.0829
▁enthusiasm	-12.0842
▁gross	-12.0845
▁Jay	-12.0847
▁raccoon	-12.0859
▁helpers	-12.0877
▁handsome	-12.0881
▁couple	-12.0883
▁Abi	-12.0883
▁sled	-12.0917
▁separated	-12.0923
▁Although	-12.0927
▁neatly	-12.0927
▁shrinking	-12.0937
▁husband	-12.0967
▁coloring	-12.0968
▁zipping	-12.0969
ueen	-12.0973
▁cousin	-12.0987
▁noon	-12.0988
▁wound	-12.099
▁dollhouse	-12.1
▁rising	-12.1015
▁Farmer	-12.1015
▁growls	-12.103
Have	-12.1032
▁temperature	-12.1072
uack	-12.108
ntil	-12.1091
▁swept	-12.1094
▁hearing	-12.1094
▁Judy	-12.1095
▁grabbing	-12.1096
▁Janie	-12.1139
▁Patty	-12.1141
▁peacefully	-12.1146
▁bend	-12.1148
▁tunnels	-12.1151
▁horizon	-12.1166
▁mention	-12.1173
Oops	-12.1175
▁limes	-12.118
▁Snuggles	-12.118
▁damage	-12.1185
▁rewarded	-12.1201
▁blocking	-12.1217
▁slices	-12.1217
▁reads	-12.1218
▁afford	-12.1223
▁batteries	-12.1223
▁Amelia	-12.1224
▁nine	-12.1241
oey	-12.1242
▁Goodbye	-12.1247
▁onions	-12.1267
▁darling	-12.1287
▁recipe	-12.1288
▁students	-12.1308
▁center	-12.131
▁among	-12.1315
▁Davey	-12.1319
▁fears	-12.1337
▁backwards	-12.137
▁click	-12.1373
▁chef	-12.1382
▁leaning	-12.1386
▁chirp	-12.1391
▁bodies	-12.1397
▁bully	-12.1398
▁thrown	-12.1401
▁noses	-12.141
Woof	-12.142
▁alien	-12.1426
▁windy	-12.1434
▁silent	-12.1441
▁seaweed	-12.1441
▁decorating	-12.1442
▁hitting	-12.1448
▁printing	-12.1464
▁i	-12.1464
▁wept	-12.1466
▁wishing	-12.1474
▁Since	-12.1477
▁neighbours	-12.1482
▁planning	-12.1487
▁artist	-12.151
▁feeding	-12.1511
▁weekend	-12.1513
▁players	-12.1517
▁snuggle	-12.1528
▁gobbled	-12.1532
▁Birthday	-12.1532
▁starfish	-12.1532
▁buzzed	-12.1533
▁Tuna	-12.1537
▁praying	-12.1556
Lila	-12.1558
▁grassy	-12.1566
his	-12.1604
▁rustling	-12.1619
▁heavier	-12.1619
▁napkins	-12.162
▁muscle	-12.1643
▁hedgehog	-12.1644
▁seconds	-12.1645
▁Nobody	-12.1652
▁prettier	-12.1664
▁Mickey	-12.1667
▁grin	-12.1671
▁requested	-12.1674
▁surroundings	-12.1679
▁repaired	-12.1684
▁heading	-12.1685
▁snatche	-12.1688
▁Ow	-12.1705
▁hour	-12.1717
Nice	-12.173
▁designed	-12.1735
▁accomplishment	-12.1735
▁treehouse	-12.1745
▁poster	-12.1746
Boo	-12.1752
▁twice	-12.1755
▁rip	-12.1764
▁Stella	-12.18
▁wiping	-12.1804
▁slower	-12.1817
no	-12.182
▁dances	-12.1824
▁woof	-12.1831
▁warnings	-12.184
▁slammed	-12.1846
▁vanilla	-12.1851
▁Back	-12.1859
▁forgets	-12.1864
th	-12.1866
▁dancers	-12.1867
▁adult	-12.1873
▁Listen	-12.1882
▁thud	-12.1889
▁hesitant	-12.1892
▁intrigued	-12.1894
▁triangles	-12.1894
▁superheroes	-12.1896
▁tucke	-12.1905
▁potion	-12.1919
▁forgetting	-12.1932
▁lungs	-12.194
▁grand	-12.1948
led	-12.1957
▁audience	-12.1986
▁forks	-12.2002
▁hawk	-12.2014
▁drawn	-12.2015
▁toddler	-12.2016
▁Tess	-12.2026
▁spreading	-12.2028
▁scamper	-12.2037
▁creations	-12.2042
▁resisted	-12.2053
▁Owl	-12.2056
▁sponge	-12.206
▁peer	-12.2063
▁geese	-12.2079
te	-12.2096
Yummy	-12.2115
yes	-12.2116
▁imagining	-12.2127
▁l	-12.2127
▁familiar	-12.2129
▁chick	-12.2129
▁borrowed	-12.2162
▁breathed	-12.2168
she	-12.2171
▁presses	-12.2181
▁th	-12.2185
ry	-12.2186
▁delivering	-12.2189
▁joyful	-12.2198
▁wins	-12.2212
▁scraped	-12.2224
▁avocados	-12.2225
▁Pippin	-12.2225
▁Eva	-12.2231
▁matters	-12.2243
▁Friends	-12.2251
▁firefighter	-12.2251
ch	-12.2251
▁die	-12.2256
Grandma	-12.2264
▁warmer	-12.2279
▁blast	-12.2286
▁touches	-12.2295
▁softer	-12.2296
▁screwdriver	-12.2302
▁throughout	-12.2304
▁mesmerized	-12.2317
▁dropping	-12.2318
▁mat	-12.232
▁changing	-12.2321
▁honked	-12.2325
▁willing	-12.2329
▁skunk	-12.2348
▁dreamt	-12.2361
▁focused	-12.2368
▁bows	-12.2371
▁guide	-12.2382
▁magician	-12.2397
--	-12.2405
▁remembering	-12.2457
▁swallowed	-12.2465
▁curiously	-12.2467
Lucy	-12.2467
▁least	-12.2472
",	-12.2474
▁glued	-12.2478
▁Momma	-12.2487
▁promises	-12.2501
but	-12.2502
▁sank	-12.2502
Like	-12.251
▁hopeful	-12.2512
▁Granny	-12.2514
▁granted	-12.2515
▁Maddy	-12.2515
▁blinking	-12.2517
▁Fido	-12.2518
al	-12.2528
▁plans	-12.2532
▁reflection	-12.2544
▁squishy	-12.2563
▁Bessie	-12.2565
red	-12.2565
▁Squeaky	-12.2565
▁sports	-12.2601
▁spices	-12.2601
▁peppers	-12.2602
aking	-12.2608
▁postman	-12.2612
▁Michael	-12.2613
▁Elly	-12.2615
ied	-12.2627
▁toaster	-12.2631
▁rivers	-12.2635
▁whispers	-12.2638
▁spoonful	-12.2645
▁crew	-12.2648
▁spikes	-12.2653
▁pours	-12.2657
▁pennies	-12.266
▁refreshing	-12.266
▁steady	-12.2662
▁zebras	-12.2674
▁Only	-12.2685
that	-12.2685
years	-12.2711
▁marshmallows	-12.2716
▁wobbled	-12.272
▁mints	-12.2729
▁grandparents	-12.2729
▁Frog	-12.2733
▁dip	-12.2733
▁prove	-12.2743
▁tested	-12.2756
Ew	-12.2757
▁sneezing	-12.2761
▁pol	-12.2764
▁sniff	-12.2779
▁sniffs	-12.2781
▁increased	-12.2784
▁swords	-12.2792
▁tuck	-12.2797
▁sewing	-12.2814
▁dived	-12.2825
▁Simon	-12.2831
▁chosen	-12.2834
▁reason	-12.2849
▁slips	-12.2851
▁stands	-12.2855
▁stern	-12.2863
are	-12.2868
▁Birdy	-12.2877
▁plain	-12.2879
▁rushing	-12.2882
▁wiggle	-12.2886
▁behaving	-12.29
ero	-12.2904
time	-12.2905
▁sailors	-12.2911
▁listens	-12.2927
▁hides	-12.2931
▁counts	-12.2932
▁stays	-12.2939
▁heroes	-12.2943
▁puppet	-12.2951
▁pens	-12.2955
▁joining	-12.2959
▁Stay	-12.2964
▁wag	-12.2985
▁ache	-12.3002
▁onward	-12.3006
▁shaped	-12.3012
▁area	-12.3013
ight	-12.3016
▁ham	-12.3025
▁tapped	-12.3025
here	-12.3032
▁Squirrel	-12.3054
▁oysters	-12.306
▁feast	-12.3064
▁Meg	-12.3066
▁plucked	-12.3068
▁appreciation	-12.3068
▁streets	-12.3072
▁Louise	-12.3072
▁aimed	-12.3074
▁roars	-12.3079
▁ropes	-12.309
▁steer	-12.3103
Mine	-12.3105
of	-12.3114
▁rotten	-12.312
▁Mina	-12.3121
▁sending	-12.314
▁trembled	-12.3147
▁master	-12.3147
▁flight	-12.3154
▁dresser	-12.3174
▁adults	-12.3196
▁scored	-12.321
▁snowball	-12.3215
▁Baa	-12.3219
▁biting	-12.3224
▁compassion	-12.3224
▁playroom	-12.3225
oo	-12.323
▁health	-12.323
▁Wendy	-12.3232
▁baths	-12.3239
Time	-12.3255
▁Love	-12.3276
▁girls	-12.3276
▁panicked	-12.3278
▁wakes	-12.3279
▁waddled	-12.3279
ted	-12.3281
▁daring	-12.3284
▁spat	-12.3294
▁strongest	-12.3294
please	-12.332
▁oatmeal	-12.3331
found	-12.3335
▁flavors	-12.3335
▁napping	-12.3337
▁guests	-12.3337
▁performing	-12.3349
▁stacked	-12.3357
▁pigeons	-12.3373
▁wobbly	-12.3384
▁freedom	-12.3384
▁swans	-12.3387
▁Bird	-12.3406
▁sparks	-12.3435
▁respected	-12.3436
▁Flopsy	-12.3439
▁shops	-12.344
▁evil	-12.3441
▁tossed	-12.3444
▁noodles	-12.3448
▁corners	-12.345
▁loading	-12.3451
▁L	-12.3457
▁seashells	-12.3483
oomy	-12.3497
▁worrying	-12.3517
▁begin	-12.3535
▁stitches	-12.355
▁chat	-12.3572
▁spins	-12.3582
▁doorway	-12.3582
▁tails	-12.359
▁necklaces	-12.3592
▁unsure	-12.3601
▁Ashley	-12.3602
▁Curious	-12.3604
▁duckling	-12.3646
▁faded	-12.366
nna	-12.3666
▁action	-12.3668
able	-12.3675
▁tissue	-12.37
▁coral	-12.3703
▁drawers	-12.3709
▁firmly	-12.3711
▁firefly	-12.3715
▁frowning	-12.3719
▁Star	-12.3719
▁crashing	-12.3724
▁cloudy	-12.3735
▁bravest	-12.376
▁rainy	-12.3769
▁amount	-12.3777
▁Yesterday	-12.3779
▁clues	-12.3785
Follow	-12.3787
Sue	-12.379
▁months	-12.3791
▁passengers	-12.3793
▁robber	-12.3798
▁kittens	-12.3801
▁Jackie	-12.3803
▁smallest	-12.3805
▁twisty	-12.3807
▁guest	-12.382
▁behavior	-12.3823
▁cosy	-12.3824
▁gardener	-12.383
▁nervously	-12.3832
▁politely	-12.3833
Watch	-12.3839
Beep	-12.3849
▁sunflowers	-12.3864
▁wider	-12.387
▁flutter	-12.3871
▁streamers	-12.3879
▁worn	-12.3881
▁pins	-12.389
▁overcome	-12.3907
what	-12.3912
▁battle	-12.3927
am	-12.3933
▁Chris	-12.3936
▁surrendered	-12.3955
▁item	-12.3955
▁flown	-12.3956
▁cushions	-12.3968
▁timer	-12.3969
▁angels	-12.3977
▁definitely	-12.3992
▁yielded	-12.4007
▁crossing	-12.4025
▁nearly	-12.4042
▁poppies	-12.4049
▁travelling	-12.405
▁ignor	-12.4066
▁Honey	-12.4067
▁wobble	-12.4086
▁suggestion	-12.4098
▁leads	-12.4101
▁Meanwhile	-12.4107
▁final	-12.4107
▁shady	-12.4109
▁Still	-12.4112
▁quarreling	-12.412
▁grant	-12.4132
▁performed	-12.4136
▁lifting	-12.415
▁designs	-12.415
▁Thanks	-12.416
▁yelped	-12.4165
▁Mouse	-12.4168
▁Janey	-12.4175
▁twinkled	-12.4184
▁blocked	-12.4193
▁humans	-12.4196
▁brushing	-12.4204
▁Ana	-12.4214
▁Try	-12.4222
▁Halloween	-12.4225
Listen	-12.4232
▁leapt	-12.4243
▁belts	-12.426
way	-12.4267
said	-12.4273
▁ponies	-12.4281
▁tricycle	-12.4281
▁bells	-12.4313
▁results	-12.4316
elly	-12.4317
?'	-12.4327
▁appreciated	-12.4327
▁punishment	-12.4332
▁campfire	-12.4332
▁fleas	-12.4338
▁squeezing	-12.434
▁quieter	-12.435
let	-12.4362
▁snowflakes	-12.4366
▁thorns	-12.4375
▁watering	-12.4376
▁genie	-12.4399
▁preparing	-12.4399
▁Jax	-12.44
▁Fiona	-12.44
▁Bongo	-12.4402
▁Pippa	-12.4402
▁colder	-12.4409
▁squeak	-12.444
▁reversed	-12.4445
▁hairdresser	-12.4452
▁fishes	-12.4452
▁shovels	-12.4457
▁encouraging	-12.4458
▁chopped	-12.4461
▁Patch	-12.4463
▁hops	-12.4469
▁symbols	-12.4476
▁Daniel	-12.4509
▁paintbrush	-12.4518
▁Its	-12.4519
▁Desp	-12.4519
▁finishing	-12.452
▁Bee	-12.4526
▁suffered	-12.453
▁burying	-12.4533
king	-12.4565
▁base	-12.4566
▁surfboard	-12.4573
▁echoed	-12.458
▁pumpkins	-12.4581
▁Pepper	-12.4586
▁disturbing	-12.459
▁Snowman	-12.4594
▁tighter	-12.4596
ring	-12.4597
▁cobwebs	-12.4598
▁healing	-12.4601
▁officers	-12.4609
vroom	-12.461
▁bleed	-12.4628
▁waterfall	-12.4636
▁Hoot	-12.4638
▁Izzy	-12.4643
▁sniffing	-12.4643
▁surfing	-12.4648
▁fantastic	-12.4659
▁Jan	-12.4675
▁sneake	-12.4684
ee	-12.4685
▁conflict	-12.4688
▁suits	-12.4689
Surprise	-12.4695
uackers	-12.4695
▁connected	-12.4705
Playing	-12.4727
▁passports	-12.4736
▁syrup	-12.4761
▁seller	-12.4769
▁smelling	-12.477
▁stain	-12.4771
▁licking	-12.4775
▁tipped	-12.4785
▁risks	-12.4803
Bob	-12.4804
▁sails	-12.4805
▁rays	-12.482
▁Fire	-12.482
▁cottage	-12.4823
▁loops	-12.4827
▁stopping	-12.4827
▁Sofia	-12.4828
▁playtime	-12.4831
▁Froggy	-12.4832
▁sweetest	-12.4836
▁tying	-12.4849
▁Pretty	-12.4849
▁cleaner	-12.4884
▁spooky	-12.4885
▁examining	-12.4886
▁believing	-12.4887
▁purr	-12.4889
▁squeaked	-12.489
Once	-12.4894
▁spits	-12.49
evin	-12.4907
▁Ali	-12.4927
▁fin	-12.494
▁breathing	-12.4942
▁garbage	-12.4948
▁Ava	-12.4949
▁suffering	-12.4957
▁Bow	-12.496
▁buzz	-12.4982
w	-12.4997
▁mermaid	-12.5007
▁swimsuit	-12.5008
▁puzzled	-12.5009
▁shed	-12.5009
▁probably	-12.5011
▁slipping	-12.5012
▁ease	-12.5016
▁whispering	-12.5024
▁lending	-12.5027
▁mailed	-12.5027
▁efforts	-12.5041
choo	-12.5053
▁f	-12.5064
side	-12.5071
▁Marie	-12.5081
▁fact	-12.5083
▁bandages	-12.5086
▁edges	-12.5091
▁buses	-12.5093
▁Mother	-12.5098
▁giggles	-12.5101
▁charge	-12.5116
▁ca	-12.5128
▁response	-12.5139
▁coach	-12.5145
▁arranged	-12.5145
▁repeating	-12.5149
▁ties	-12.5159
▁cuddles	-12.5172
▁grip	-12.5196
▁planting	-12.5197
▁trotted	-12.5202
▁talks	-12.5204
▁frowns	-12.521
▁forgiving	-12.5218
▁shoo	-12.522
▁braver	-12.5222
▁lent	-12.5251
▁grows	-12.5253
▁Ally	-12.5264
▁cotton	-12.5266
▁luckily	-12.527
▁sewed	-12.5271
▁awoke	-12.5273
ids	-12.5278
▁damaged	-12.5283
▁Splash	-12.5291
▁packages	-12.5292
Get	-12.5308
▁members	-12.5313
▁customers	-12.532
▁Peggy	-12.5331
▁Barry	-12.5331
▁Holly	-12.5332
▁travels	-12.5333
▁Nana	-12.5336
▁Megan	-12.5337
▁driveway	-12.5343
▁supported	-12.536
▁rather	-12.5362
with	-12.5379
▁instruments	-12.5384
etting	-12.5386
!".	-12.5396
▁warrior	-12.5396
▁annoyed	-12.5397
▁Peppa	-12.5398
nder	-12.5401
▁firm	-12.5412
▁cr	-12.5425
▁plays	-12.5441
obo	-12.5447
▁o	-12.5453
▁inchworm	-12.5463
▁reunited	-12.5463
▁Stitch	-12.5464
▁accomplished	-12.5465
▁Maddie	-12.5465
▁Fuzzy	-12.547
▁gears	-12.5476
▁weeds	-12.5478
▁rotting	-12.5479
▁anger	-12.548
end	-12.5498
▁tubes	-12.5513
▁drivers	-12.5526
▁Saturday	-12.5529
▁telescope	-12.5529
▁material	-12.5529
▁Excitedly	-12.5529
▁cowboy	-12.5534
▁Helen	-12.5538
▁calmly	-12.5544
▁spells	-12.5551
▁untie	-12.5554
▁sc	-12.556
▁paths	-12.5567
▁decisions	-12.5584
▁conversation	-12.5596
▁Maisy	-12.5598
▁Samantha	-12.56
▁discussing	-12.5605
▁soaking	-12.5611
▁pupils	-12.5613
▁desp	-12.565
lthough	-12.5652
S	-12.5652
▁heartbroken	-12.5664
▁permitted	-12.5664
▁twisting	-12.5684
▁wisely	-12.5684
other	-12.5706
▁refuse	-12.5707
▁straw	-12.5726
▁buddy	-12.573
▁tidied	-12.573
▁masterpiece	-12.5731
▁classmates	-12.5735
▁vehicles	-12.5737
▁belongings	-12.574
▁address	-12.574
▁sa	-12.5793
▁swollen	-12.5798
▁footsteps	-12.5799
▁reassured	-12.58
▁student	-12.58
▁ships	-12.5817
▁guessing	-12.5823
▁whose	-12.584
▁sharks	-12.5841
▁knots	-12.5843
▁mood	-12.5844
urried	-12.5858
Little	-12.5859
Alright	-12.5861
▁humming	-12.5865
▁insisting	-12.5869
▁Lina	-12.5869
▁Jonny	-12.587
▁novels	-12.5872
▁scent	-12.5874
▁peeled	-12.5874
▁Outside	-12.5874
▁Frankie	-12.5875
▁gap	-12.5882
▁type	-12.5886
▁slither	-12.589
▁spills	-12.59
▁darlings	-12.5901
▁explorer	-12.5904
▁force	-12.5908
five	-12.5922
▁nibble	-12.5925
ufus	-12.5931
▁nasty	-12.5935
▁Bubba	-12.5937
very	-12.5944
▁nibbled	-12.5946
▁speeding	-12.5958
Boys	-12.5959
▁aliens	-12.596
▁lies	-12.5965
Goodnight	-12.5966
▁gesture	-12.599
▁toolbox	-12.6006
▁flipped	-12.6007
▁Fight	-12.6009
▁spies	-12.601
▁prayers	-12.6015
▁solving	-12.6016
▁Tiger	-12.6023
▁toward	-12.6031
▁Because	-12.6038
▁dangers	-12.6075
▁Elsa	-12.6076
▁granddaughter	-12.6076
▁scurr	-12.6077
▁chilly	-12.6079
▁untied	-12.6092
Always	-12.6092
▁comforting	-12.6099
ipped	-12.6108
▁pad	-12.611
▁simpl	-12.6117
▁elf	-12.6124
▁nurses	-12.6125
▁seagulls	-12.6131
▁survive	-12.6136
▁rinse	-12.6145
▁unfortunately	-12.6146
▁congratulated	-12.6146
ried	-12.6148
▁artwork	-12.6149
▁birdhouse	-12.6149
▁dur	-12.6165
ept	-12.6185
▁mane	-12.6188
▁cheers	-12.6197
▁treated	-12.6213
▁inspired	-12.6217
▁veggies	-12.6218
▁Flora	-12.6221
▁mosquitoes	-12.6222
▁honking	-12.6224
▁beautifully	-12.6224
▁banged	-12.6229
ng	-12.623
▁delayed	-12.6235
▁fits	-12.625
▁m	-12.6265
oger	-12.6267
▁Paula	-12.6269
▁aware	-12.6269
▁shown	-12.6273
▁crystals	-12.6278
▁shrunk	-12.6288
▁sweaty	-12.6291
udy	-12.63
▁explains	-12.6318
ad	-12.6321
they	-12.6345
▁Startled	-12.6359
▁activity	-12.636
▁purpose	-12.6361
▁gazing	-12.6361
▁squished	-12.6362
▁Spidey	-12.6363
▁Jean	-12.6366
▁taped	-12.6368
▁Liam	-12.6379
▁wasting	-12.6387
▁Mo	-12.6388
▁lett	-12.6405
▁wounds	-12.6413
▁compare	-12.6414
▁focus	-12.6426
▁age	-12.6433
▁apologised	-12.6433
▁vines	-12.6436
▁Ginger	-12.6437
▁tapping	-12.6438
▁exercises	-12.644
▁manners	-12.6441
▁Mae	-12.649
elvet	-12.6502
▁encouragement	-12.6505
▁emerged	-12.6506
▁smashed	-12.6507
▁scurrying	-12.6508
▁baskets	-12.6511
▁concert	-12.6513
Leave	-12.6533
▁beeped	-12.654
▁foxes	-12.6556
ow	-12.6572
▁twenty	-12.6578
▁pleaded	-12.6579
▁correctly	-12.6581
l	-12.6585
▁bitten	-12.6585
▁bracelets	-12.6588
▁aisle	-12.6589
▁Tessa	-12.6598
▁thanking	-12.6599
▁Feel	-12.6605
▁exchange	-12.6608
▁Dory	-12.663
▁wrinkled	-12.6654
▁swaying	-12.6654
▁F	-12.6654
▁Freddie	-12.6654
▁warmly	-12.6656
▁presented	-12.6664
▁rely	-12.6672
▁chocolates	-12.6718
▁Excited	-12.6726
▁Becky	-12.6727
▁beaver	-12.673
▁robots	-12.6733
▁Nora	-12.6734
▁glittering	-12.6735
!'	-12.6741
▁laying	-12.6745
▁rowed	-12.6748
so	-12.6748
▁crowns	-12.6751
▁races	-12.6756
▁Well	-12.6759
▁afar	-12.6765
▁changes	-12.6768
▁trusting	-12.6773
▁figures	-12.6775
▁flaps	-12.6786
▁rats	-12.6793
icky	-12.68
▁opposite	-12.6802
▁rescuing	-12.6803
▁nuzzled	-12.6804
▁wiggly	-12.6804
▁Terry	-12.6806
▁Cara	-12.6809
▁swimmer	-12.6814
▁labels	-12.6815
▁pedaled	-12.6817
▁Lou	-12.6827
▁Dog	-12.6828
▁tasting	-12.6835
▁notes	-12.6843
uth	-12.6852
▁cleared	-12.6873
▁business	-12.6877
▁scarecrow	-12.6878
▁grandchild	-12.6878
▁declared	-12.6878
▁shimmering	-12.6879
▁anticipation	-12.6879
▁swayed	-12.688
▁windowsill	-12.688
▁fins	-12.6886
▁astronaut	-12.6889
▁blond	-12.689
▁statues	-12.6896
▁dressing	-12.6903
▁displayed	-12.691
?!"	-12.6927
▁peas	-12.6935
▁covering	-12.6937
▁spy	-12.6944
▁Jojo	-12.6954
▁dodged	-12.6958
▁Lion	-12.6966
▁designing	-12.6983
Bun	-12.6986
▁stumble	-12.6996
▁ma	-12.7028
▁except	-12.7031
▁discoveries	-12.7032
▁doorbell	-12.7033
▁collapsed	-12.7033
▁attacked	-12.7036
▁routine	-12.7039
▁Elle	-12.704
▁decoration	-12.7042
▁sadder	-12.7049
▁Spring	-12.7056
▁beating	-12.7062
▁pandas	-12.7071
▁Ever	-12.7094
▁swap	-12.7105
▁attack	-12.7106
▁forgiveness	-12.711
▁purrs	-12.7112
▁manager	-12.7133
▁magazines	-12.7144
lay	-12.7164
▁Dr	-12.7165
▁whistles	-12.717
▁tweet	-12.7171
▁flips	-12.7173
Dear	-12.7184
▁toothbrush	-12.7186
▁Eddie	-12.7187
▁generosity	-12.7187
▁tummies	-12.7187
▁ghosts	-12.7187
▁million	-12.7187
▁failed	-12.7188
▁sunscreen	-12.7188
▁Nancy	-12.7189
▁Amanda	-12.7189
▁sped	-12.7194
▁lipstick	-12.7196
▁cocoon	-12.7197
▁wealth	-12.7197
So	-12.7199
▁scientist	-12.72
▁tumbled	-12.72
▁turtles	-12.7201
▁uniforms	-12.7214
▁icing	-12.7216
▁Green	-12.7244
▁experienced	-12.7252
▁encountered	-12.7266
▁Olivia	-12.7267
▁Crabby	-12.7268
▁JoJo	-12.7273
▁bathing	-12.7279
▁customer	-12.7279
▁seashell	-12.7279
▁goodies	-12.7283
▁obeyed	-12.7284
▁badger	-12.7288
▁lessons	-12.7289
▁joked	-12.7325
▁gratitude	-12.7345
▁Fortunately	-12.7345
▁dripping	-12.7345
▁admiration	-12.7346
▁sternly	-12.7346
▁nodding	-12.7348
▁William	-12.7351
▁yum	-12.7353
▁images	-12.7358
▁loses	-12.7368
▁otters	-12.7372
▁drag	-12.7405
▁se	-12.7415
▁convince	-12.7415
▁astronauts	-12.7415
▁Melissa	-12.7425
▁Phil	-12.7428
ain	-12.7429
▁grandfather	-12.7429
▁whoosh	-12.7432
▁Shelly	-12.7433
▁flip	-12.7435
▁robin	-12.744
▁brightest	-12.7448
▁Monkey	-12.745
▁inches	-12.7453
▁stew	-12.7455
▁singers	-12.7472
Bang	-12.7474
▁aside	-12.7504
▁extraordinary	-12.7506
▁suggest	-12.7507
▁scur	-12.7509
▁Jonathan	-12.751
▁Jason	-12.7513
▁applauding	-12.7517
▁laptop	-12.7517
▁Bounce	-12.7521
All	-12.7522
▁tables	-12.7544
▁tires	-12.7551
▁visitors	-12.7559
udolph	-12.7582
▁grandson	-12.7587
▁lowered	-12.7591
▁matey	-12.7592
▁slowed	-12.7593
▁Sh	-12.7594
▁di	-12.7601
▁flashed	-12.7601
▁Gabby	-12.7603
▁recorder	-12.7606
Too	-12.7618
▁blown	-12.7619
▁Hope	-12.7629
▁adds	-12.7646
▁backpacks	-12.7648
▁drowned	-12.767
Arrr	-12.7676
▁sill	-12.7677
▁checkout	-12.7678
▁meows	-12.7679
▁germs	-12.768
▁meowing	-12.7681
▁sheets	-12.7681
▁instrument	-12.7685
▁awful	-12.7695
ying	-12.7696
▁soapy	-12.7707
ack	-12.7719
▁scolds	-12.7721
▁snaps	-12.7735
▁erase	-12.7735
▁tidying	-12.774
▁cracks	-12.7742
▁applause	-12.7752
▁responded	-12.7753
▁munching	-12.7754
▁Brian	-12.7755
▁beaming	-12.7756
▁quacking	-12.7761
▁Speedy	-12.7765
▁shorter	-12.7765
▁scratching	-12.7768
▁elbow	-12.7768
▁shall	-12.7777
▁kings	-12.7784
▁switched	-12.7796
▁rains	-12.7803
▁parted	-12.7811
▁clerk	-12.7835
▁supplied	-12.7835
▁Joanna	-12.7837
▁increasing	-12.7837
▁steering	-12.7838
▁rumbling	-12.7839
▁tentacles	-12.7839
▁clicked	-12.7844
Mr	-12.7861
▁floats	-12.7867
▁flock	-12.7869
▁questioned	-12.7884
nt	-12.7893
Molly	-12.7905
▁member	-12.7907
not	-12.7909
▁scrub	-12.7919
▁terrified	-12.792
▁flashing	-12.7928
▁carries	-12.795
▁bothered	-12.7951
▁characters	-12.796
Billy	-12.796
i	-12.7979
itting	-12.7987
▁Alan	-12.7998
▁conductor	-12.8004
▁tilted	-12.8004
▁cheated	-12.8007
▁surprising	-12.8009
▁petting	-12.8015
happy	-12.8017
▁films	-12.8058
▁scooters	-12.8077
Stay	-12.8081
▁microwave	-12.8089
▁Claus	-12.8089
▁stored	-12.8089
▁confidence	-12.8094
▁Sir	-12.8094
▁Lenny	-12.8096
▁convinced	-12.8101
▁beehive	-12.8108
▁prevented	-12.8117
there	-12.8117
▁offering	-12.8124
▁risk	-12.8143
for	-12.8148
▁weapons	-12.8165
▁Tyler	-12.8175
▁Eliza	-12.8175
▁crawls	-12.8175
▁environment	-12.8175
▁conquered	-12.8177
▁pro	-12.8178
ered	-12.818
Choo	-12.8183
▁troubles	-12.8183
▁Bobbie	-12.8183
▁knocking	-12.8205
▁pe	-12.8205
▁movements	-12.8221
▁hood	-12.823
▁Twinkle	-12.8245
▁snug	-12.8262
▁Gary	-12.8262
▁chip	-12.8274
▁destroying	-12.8279
▁stretches	-12.8283
x	-12.8289
▁teachers	-12.829
▁container	-12.8292
▁freed	-12.8293
▁hardest	-12.8309
▁orders	-12.8313
▁pops	-12.8316
▁testing	-12.8324
▁co	-12.8339
▁Matilda	-12.835
▁common	-12.835
▁paddling	-12.835
▁expecting	-12.8357
▁youngest	-12.8359
▁robbers	-12.8365
▁picnics	-12.8366
▁dears	-12.8368
▁umbrellas	-12.8384
yan	-12.8389
▁scramble	-12.8399
▁deed	-12.8425
ears	-12.8429
like	-12.8431
▁tablet	-12.8434
▁mischievous	-12.8438
▁tickling	-12.8439
▁observing	-12.8439
▁announced	-12.844
▁Hold	-12.8442
▁Po	-12.8447
▁Gus	-12.8448
▁chipmunk	-12.846
▁argument	-12.8461
▁diamonds	-12.8481
▁stamped	-12.8482
▁Flo	-12.849
▁thorn	-12.8497
▁signing	-12.8498
▁Again	-12.8504
ness	-12.8512
▁Annabelle	-12.8528
▁strips	-12.853
▁Gemma	-12.8532
▁sirens	-12.8546
▁models	-12.8549
▁unpacking	-12.855
▁Bang	-12.8555
▁ramp	-12.8568
▁tips	-12.86
▁Say	-12.8602
▁goats	-12.8606
▁messes	-12.8611
Someone	-12.8612
▁shrank	-12.8618
▁Charlotte	-12.8618
▁raising	-12.8621
▁grumbled	-12.8622
▁proper	-12.8623
▁W	-12.8626
▁clearly	-12.8631
▁bride	-12.8635
▁Welcome	-12.8638
▁bouquet	-12.8639
ccidents	-12.8641
▁exploration	-12.8641
▁cupcake	-12.8651
ocky	-12.8653
▁tearing	-12.8658
▁ba	-12.8663
▁combed	-12.8666
▁mattered	-12.8667
had	-12.8682
▁bounces	-12.8685
Fluffy	-12.8688
▁Stan	-12.8699
less	-12.87
uickly	-12.8706
▁cowboys	-12.8708
▁Immediately	-12.871
▁Elsie	-12.8711
▁Gracie	-12.8713
▁Sandra	-12.8713
▁dragonfly	-12.8713
▁exploded	-12.8715
▁Martin	-12.8719
▁gasp	-12.8721
▁Hank	-12.8722
▁shorts	-12.8742
▁Moo	-12.875
▁buckled	-12.8773
His	-12.8776
▁soundly	-12.8778
▁nests	-12.8796
▁vibrant	-12.88
▁responsibility	-12.8801
▁behaviour	-12.8802
▁salon	-12.8807
▁insist	-12.881
Sally	-12.8815
▁Auntie	-12.8815
▁surely	-12.8815
▁twists	-12.8823
▁temptation	-12.8823
▁swirl	-12.8823
▁teapot	-12.8823
▁teams	-12.8829
▁winding	-12.8829
▁expert	-12.883
▁relaxing	-12.8833
▁squirt	-12.8838
▁smelt	-12.8855
▁seals	-12.8864
▁outfits	-12.8868
▁Midnight	-12.8893
▁stethoscope	-12.8893
▁Mamma	-12.8904
▁leaking	-12.8913
▁court	-12.8913
▁imagina	-12.8913
▁quilt	-12.8919
▁Foxy	-12.8921
▁explaining	-12.8923
▁papa	-12.8924
▁jars	-12.8935
▁checking	-12.8946
▁list	-12.896
▁hunters	-12.8969
▁active	-12.8971
ibbit	-12.8979
▁peeped	-12.8987
▁instantly	-12.8987
▁mommies	-12.8988
▁glimmering	-12.8989
▁Bruno	-12.8996
▁squeaky	-12.8999
▁oh	-12.9004
▁pressing	-12.9008
▁overhead	-12.9011
▁expression	-12.9012
▁li	-12.9018
▁burger	-12.9022
▁minds	-12.9053
▁Liza	-12.9064
▁traded	-12.9066
▁kit	-12.907
▁trigger	-12.9081
▁sandpit	-12.9081
▁killed	-12.9083
▁wriggled	-12.9084
▁tore	-12.9101
▁breaths	-12.9107
▁cheaper	-12.9108
▁Finny	-12.9108
saw	-12.9122
▁sway	-12.9151
▁experiences	-12.9162
iley	-12.9167
▁stall	-12.9174
▁inseparable	-12.9176
▁Bonnie	-12.9178
▁Tammy	-12.9181
▁hunting	-12.9186
▁Allie	-12.919
▁zooms	-12.9191
▁sh	-12.9195
▁height	-12.92
▁poses	-12.92
▁puppets	-12.9201
▁envelopes	-12.9214
▁hers	-12.9231
▁compete	-12.9238
Hold	-12.9249
▁moat	-12.9251
▁local	-12.9272
▁opportunity	-12.9272
▁providing	-12.9273
▁defeated	-12.9276
▁Dino	-12.9279
avi	-12.9281
▁understands	-12.9294
▁cubs	-12.9297
▁snatch	-12.9304
▁sincere	-12.9311
▁squeezes	-12.9322
▁burnt	-12.9356
Jill	-12.9356
▁plugged	-12.9371
▁meatballs	-12.9371
▁snowy	-12.9372
▁crops	-12.9379
▁flowing	-12.938
▁closing	-12.9381
▁Mila	-12.9381
ok	-12.9383
▁Trust	-12.9384
▁pouch	-12.9384
Put	-12.9404
▁rows	-12.9405
▁Muffin	-12.9409
▁calmer	-12.9432
ther	-12.9438
▁types	-12.9456
▁Jon	-12.9461
▁preschool	-12.9467
▁annoying	-12.9467
▁fascinating	-12.9467
▁shattered	-12.9468
▁squinted	-12.9468
▁cheat	-12.9469
▁glided	-12.947
▁April	-12.9472
▁opinions	-12.9478
▁hotter	-12.948
▁cheerfully	-12.9481
▁Oliver	-12.9494
▁Isn	-12.9505
can	-12.9518
▁napped	-12.9518
▁haircuts	-12.9524
ie	-12.9526
▁heaven	-12.9526
▁textures	-12.9558
▁checks	-12.9564
▁prickly	-12.9566
▁Summer	-12.9569
▁wildflowers	-12.9569
▁dryer	-12.958
▁visitor	-12.9585
▁sprout	-12.9587
▁sometime	-12.9598
▁queens	-12.9602
▁companion	-12.9603
▁seas	-12.9606
▁languages	-12.962
▁Carla	-12.9622
▁gasps	-12.965
▁melody	-12.9666
▁Stanley	-12.9666
▁enemy	-12.9667
▁pantry	-12.9667
▁smoking	-12.9668
▁skies	-12.967
▁amused	-12.9674
▁born	-12.9681
▁pump	-12.9687
▁bruises	-12.9694
▁stuffing	-12.9703
Soon	-12.9705
▁returning	-12.9709
M	-12.9716
▁dollar	-12.9718
▁swirls	-12.9734
▁hisses	-12.9739
▁bubbling	-12.9768
▁Mona	-12.9768
▁bubbly	-12.977
▁Chickie	-12.9777
▁stroll	-12.9782
▁curl	-12.9783
ice	-12.9799
▁upside	-12.9805
▁rewards	-12.9809
▁Sun	-12.9837
▁Prince	-12.9838
▁forts	-12.9839
▁chin	-12.9851
▁brains	-12.9858
▁peak	-12.9862
Ahoy	-12.9865
▁natural	-12.9868
▁mysteries	-12.9869
▁lumberjack	-12.9869
▁healthier	-12.987
ded	-12.9871
▁freezing	-12.9873
▁chill	-12.9875
athy	-12.9891
▁Does	-12.9892
▁zips	-12.9896
▁grasshopper	-12.9902
▁Peep	-12.9905
▁passes	-12.9908
▁traveling	-12.9909
▁bond	-12.9909
g	-12.9912
▁hangers	-12.992
Sarah	-12.9933
▁tests	-12.9936
▁sprays	-12.9946
▁sprang	-12.9972
▁pepperoni	-12.9972
▁unfamiliar	-12.9973
▁chatted	-12.9973
▁Thankfully	-12.9973
▁crocodiles	-12.998
▁whined	-12.998
▁answering	-12.9984
▁choo	-12.999
▁wiser	-12.9992
▁roast	-12.9993
▁finishes	-12.9996
▁riverbank	-13.0004
▁shallow	-13.0008
▁Pink	-13.0018
shaped	-13.002
▁Show	-13.0049
▁depend	-13.0065
▁maker	-13.0069
▁cuddling	-13.0077
▁munched	-13.0081
▁Jasmine	-13.0083
▁serving	-13.0088
▁coolest	-13.0101
▁sipped	-13.0105
▁occasion	-13.0115
▁compliment	-13.0115
▁burns	-13.0128
▁miller	-13.0129
▁forgiven	-13.0132
▁magnif	-13.0157
▁sweep	-13.0179
▁bamboo	-13.0182
▁apology	-13.0183
▁moonlight	-13.0183
▁repairman	-13.0184
▁reappeared	-13.0185
▁spilling	-13.0194
▁details	-13.0195
▁rhino	-13.0199
▁sweeter	-13.0205
▁visits	-13.0248
▁momma	-13.0263
Jane	-13.0283
▁Piggy	-13.0288
▁thieves	-13.0288
▁satisfaction	-13.0288
be	-13.0289
▁dashed	-13.029
▁Snowball	-13.0291
▁honesty	-13.0295
▁communicate	-13.03
▁successfully	-13.0302
ear	-13.0304
▁pinching	-13.0317
▁shrug	-13.0324
▁Joan	-13.0328
▁caus	-13.037
little	-13.0382
▁messages	-13.0389
▁Share	-13.0392
▁chatting	-13.0396
▁whimpered	-13.0397
▁snapping	-13.0397
▁Yum	-13.0407
▁raking	-13.0407
▁springtime	-13.0407
▁donkey	-13.0411
▁canvas	-13.0411
First	-13.0427
▁honks	-13.0432
▁Birdie	-13.0434
▁miracle	-13.0435
▁watermelon	-13.0435
▁target	-13.0441
osa	-13.0446
▁self	-13.0462
▁cops	-13.0472
▁dippe	-13.0478
▁stomp	-13.0497
Guess	-13.05
▁blank	-13.0503
▁attitude	-13.0504
▁positive	-13.0505
▁snorted	-13.0505
▁croaked	-13.0507
▁cheating	-13.0508
▁pizzas	-13.0508
▁Hootie	-13.051
▁glittered	-13.0522
▁express	-13.0523
▁moo	-13.0524
E	-13.0531
▁example	-13.0539
back	-13.0555
Joe	-13.056
▁Eat	-13.0566
us	-13.0566
▁hike	-13.0568
▁bundle	-13.0569
▁longest	-13.0572
Deal	-13.0579
▁dump	-13.0582
▁embarrass	-13.0595
▁glimmer	-13.0611
▁Sasha	-13.0614
▁Jody	-13.0614
▁ketchup	-13.0614
▁protection	-13.0615
▁practised	-13.0616
▁knives	-13.0617
▁airplanes	-13.0626
▁ability	-13.0627
our	-13.0627
▁puff	-13.0633
▁Belle	-13.0639
For	-13.067
▁rebuild	-13.0678
▁Steven	-13.0692
Never	-13.0694
▁bluebird	-13.0698
▁shines	-13.0712
▁defeat	-13.0721
▁wolves	-13.0725
▁discouraged	-13.0726
▁groaned	-13.0726
▁grace	-13.0728
▁pounced	-13.0729
▁embarrassing	-13.0729
▁demanding	-13.0734
▁leap	-13.0736
▁Ea	-13.0744
▁levers	-13.0746
▁weighing	-13.0753
▁weighs	-13.076
▁Chirp	-13.0763
▁Bad	-13.0772
▁situations	-13.0774
▁shrugs	-13.08
▁P	-13.0817
▁beam	-13.0831
▁hummed	-13.0837
▁Penelope	-13.0838
▁chopping	-13.0839
▁Amber	-13.084
▁distracted	-13.084
▁joyfully	-13.0841
▁wiggling	-13.0841
▁swimsuits	-13.0843
▁faint	-13.0847
▁goodness	-13.0848
▁engines	-13.0865
▁swallow	-13.0867
▁lump	-13.0876
▁rewarding	-13.0877
▁thicker	-13.0882
▁Bo	-13.0891
▁awhile	-13.0897
▁storms	-13.0899
▁Super	-13.09
Some	-13.0907
▁Choo	-13.0909
ould	-13.0909
▁aeroplanes	-13.0913
▁patt	-13.0927
▁Girl	-13.0935
▁crouch	-13.0938
▁enemies	-13.0951
▁popping	-13.0952
▁Pinchy	-13.0953
▁Joanne	-13.0955
▁cafe	-13.0971
▁munch	-13.0977
▁fade	-13.098
▁supporting	-13.0986
▁Duck	-13.099
D	-13.0994
▁guarding	-13.0999
▁blade	-13.1005
▁deserved	-13.1012
▁scold	-13.1017
▁Jilly	-13.1022
▁forests	-13.1022
▁Man	-13.1027
▁ho	-13.103
▁excite	-13.1046
▁rips	-13.1055
opped	-13.1056
▁Mick	-13.1065
▁recess	-13.1066
▁injured	-13.1066
▁energetic	-13.1066
▁luckiest	-13.1066
▁Josie	-13.1067
▁teamwork	-13.1068
using	-13.1078
▁enjoyable	-13.1079
▁facing	-13.1079
▁pl	-13.1084
▁underwater	-13.1086
▁scattering	-13.1087
aty	-13.1091
▁plug	-13.1093
▁sandy	-13.1098
▁hundred	-13.1116
▁boil	-13.1125
▁Sparkle	-13.1127
▁sweetly	-13.115
Which	-13.116
▁treasured	-13.116
▁repeats	-13.1164
▁pills	-13.1171
▁Eric	-13.1182
▁Carol	-13.1182
▁fireflies	-13.1184
▁whipped	-13.1184
▁certainly	-13.1186
top	-13.1186
▁pounds	-13.1189
▁daily	-13.119
▁noticing	-13.1192
▁coughed	-13.1197
▁Fish	-13.1197
▁computers	-13.12
▁pecks	-13.1203
▁Through	-13.1203
ant	-13.1206
▁differently	-13.1206
▁styles	-13.122
▁becomes	-13.1226
▁whales	-13.123
▁odd	-13.1242
ld	-13.1246
▁month	-13.1248
have	-13.125
▁judges	-13.1271
▁costs	-13.1273
▁lasers	-13.1277
▁Over	-13.1288
▁Angel	-13.1291
by	-13.1293
ebecca	-13.1296
▁Doug	-13.1298
▁angrily	-13.13
▁poisonous	-13.13
▁aroma	-13.13
▁tugging	-13.1302
▁doorstep	-13.1304
▁welcoming	-13.1305
▁purring	-13.1306
k	-13.1307
▁slapping	-13.1308
▁Hurry	-13.1311
▁smartest	-13.1317
▁Never	-13.1327
▁bends	-13.1327
▁worst	-13.133
▁alligators	-13.1352
▁bomb	-13.1357
▁benches	-13.1359
▁wrapper	-13.1359
▁prizes	-13.136
▁medals	-13.1378
▁jets	-13.138
▁vests	-13.138
▁talents	-13.1389
Honey	-13.1395
b	-13.1398
▁marking	-13.1409
▁cherish	-13.1411
▁overwhelmed	-13.1419
▁silently	-13.1421
▁blushed	-13.1421
▁Gwen	-13.1425
▁formed	-13.1431
L	-13.1448
▁kayaking	-13.1454
▁Skip	-13.1462
cat	-13.1469
▁bowing	-13.1472
▁playdate	-13.1473
▁traps	-13.1474
Only	-13.1477
▁blades	-13.1483
▁thump	-13.1489
▁pipes	-13.1492
▁burgers	-13.1504
▁Ma	-13.1508
id	-13.152
Hurry	-13.1523
▁dads	-13.1539
▁lava	-13.1539
▁intently	-13.154
▁hopscotch	-13.154
▁scenery	-13.154
▁improving	-13.154
▁loyalty	-13.1541
▁marveled	-13.1542
▁Greta	-13.1542
▁flashes	-13.1545
▁nicest	-13.1551
Amy	-13.1584
▁larger	-13.159
▁newspapers	-13.1591
veral	-13.1595
▁claw	-13.1606
▁strokes	-13.1661
▁hesitation	-13.1662
▁intelligence	-13.1662
▁Bouncy	-13.1662
▁goodbyes	-13.1663
▁transformed	-13.1663
▁THE	-13.1664
▁Minnie	-13.1664
▁vinegar	-13.1671
▁crowded	-13.1678
▁Deal	-13.1692
this	-13.1703
▁peacock	-13.1709
▁jogger	-13.1719
man	-13.1724
▁thumbs	-13.1738
colored	-13.1751
▁hissing	-13.1774
big	-13.1782
▁hooves	-13.1785
▁disappointment	-13.1785
Benny	-13.1792
▁whe	-13.1792
▁Ouch	-13.1792
▁necks	-13.1792
▁facts	-13.1794
▁Fairy	-13.1798
▁Andrew	-13.1798
▁kneeling	-13.1798
mom	-13.1801
▁Sleep	-13.181
An	-13.1812
sing	-13.1813
▁Tomorrow	-13.1839
▁experiment	-13.184
Does	-13.1844
▁servant	-13.1845
▁skirts	-13.1851
▁runner	-13.1855
Open	-13.1873
ai	-13.1875
▁tunes	-13.1884
▁Life	-13.1888
▁Dragon	-13.1894
▁cracker	-13.1894
▁electricity	-13.191
▁townspeople	-13.191
▁Jennie	-13.191
▁unwrapped	-13.191
▁pleasant	-13.1911
▁Leah	-13.1916
▁strolled	-13.1916
▁cooperate	-13.1918
▁Which	-13.1927
▁alongside	-13.193
▁sweaters	-13.1951
▁wheelbarrow	-13.196
▁souvenir	-13.197
▁movement	-13.1971
▁scene	-13.1971
▁bats	-13.1973
▁magically	-13.1975
▁cousins	-13.1976
le	-13.1977
beep	-13.198
▁su	-13.1981
▁Pick	-13.1996
▁sever	-13.2006
▁tickles	-13.2007
▁Boo	-13.2025
▁drying	-13.2027
▁untangle	-13.2028
Hmm	-13.2033
▁cautious	-13.2036
▁sensation	-13.2037
▁shinier	-13.2037
▁stepping	-13.2038
▁choosing	-13.2038
Anytime	-13.2039
▁Bruce	-13.2039
▁Patrick	-13.204
▁Caroline	-13.204
shirt	-13.204
▁Toni	-13.204
▁beast	-13.2042
▁Colin	-13.2046
▁Years	-13.2049
▁yawning	-13.2054
▁ankle	-13.2054
▁cages	-13.2068
▁disappearing	-13.2069
▁embrace	-13.2086
▁Avery	-13.2087
▁seatbelt	-13.2098
▁trusts	-13.2102
▁camel	-13.2103
▁Sparkles	-13.2111
pped	-13.2118
▁stains	-13.2122
▁blur	-13.2131
▁landing	-13.2135
▁jobs	-13.2137
▁icky	-13.2144
▁scoops	-13.2156
▁playhouse	-13.216
▁allowance	-13.2165
▁trading	-13.2165
▁countries	-13.2166
▁boiling	-13.2167
▁Sunshine	-13.2168
▁aboard	-13.2169
▁shoelaces	-13.2175
▁racer	-13.2181
▁banging	-13.2183
▁re	-13.2183
▁heels	-13.219
C	-13.2191
▁admit	-13.2229
ory	-13.2235
▁hooks	-13.2243
▁dial	-13.2254
play	-13.2273
▁sneezes	-13.2279
▁Day	-13.2285
▁certain	-13.229
aitlyn	-13.229
▁Johnnie	-13.2295
▁globe	-13.2295
▁property	-13.2295
▁thunderstorm	-13.2295
▁Libby	-13.2298
▁pokes	-13.2311
▁Gogo	-13.2316
▁digs	-13.2322
▁Other	-13.2326
▁bicycles	-13.2336
▁performers	-13.2336
▁Li	-13.234
do	-13.2341
▁Magic	-13.2345
▁earned	-13.2346
▁section	-13.2347
Achoo	-13.2349
▁current	-13.2355
▁hamster	-13.2355
▁appearance	-13.2359
▁riddle	-13.2361
▁challenged	-13.2364
▁whine	-13.2369
ne	-13.2399
▁shoots	-13.2402
▁Mel	-13.2409
▁hoses	-13.2419
▁Felix	-13.2426
▁sturdy	-13.2426
▁Smoke	-13.243
▁unfair	-13.243
▁soothing	-13.2431
▁Pingo	-13.2431
cked	-13.2447
▁groom	-13.2451
▁Clare	-13.2464
clock	-13.2478
▁lunchtime	-13.2481
▁prank	-13.2499
▁hundreds	-13.2503
▁circled	-13.2504
hind	-13.2504
▁cells	-13.2507
▁minded	-13.2512
look	-13.253
▁hoops	-13.2536
Isn	-13.2553
usty	-13.2558
▁mugs	-13.2559
▁babysitter	-13.256
▁exercising	-13.256
▁glistening	-13.256
▁Maisie	-13.2563
▁tempted	-13.2563
▁Carefully	-13.2563
▁Buggy	-13.2566
▁tale	-13.2569
▁Albert	-13.2569
▁birdseed	-13.257
▁volcanoes	-13.2576
▁lush	-13.2577
▁foam	-13.2593
▁drip	-13.2614
▁tongues	-13.2624
▁lizards	-13.2624
▁scores	-13.2626
ked	-13.2628
▁sinking	-13.263
▁Johny	-13.2637
▁sleds	-13.265
▁designer	-13.2656
ragged	-13.2668
▁Ami	-13.2676
▁spears	-13.2683
▁leans	-13.2691
▁process	-13.2695
▁harmony	-13.2695
▁swapped	-13.2695
▁undone	-13.2696
▁thirty	-13.2697
▁charm	-13.2698
▁lilies	-13.2698
▁angrier	-13.2698
▁hollow	-13.2699
Danger	-13.2701
Baa	-13.2702
ani	-13.2704
▁coughing	-13.2705
▁otherwise	-13.2709
▁Nurse	-13.2711
▁mayor	-13.2713
▁patches	-13.2714
▁slam	-13.2737
Grandpa	-13.274
▁quacks	-13.2744
▁ticking	-13.2744
▁caterpillars	-13.2752
▁chews	-13.2756
▁Snap	-13.2764
▁recommendation	-13.2765
▁character	-13.2765
▁stirs	-13.2766
▁craft	-13.2783
▁soda	-13.2801
▁faith	-13.2815
▁Melody	-13.2831
▁floppy	-13.2831
▁lullaby	-13.2831
▁juiciest	-13.2832
▁campsite	-13.2832
▁confusion	-13.2832
▁softened	-13.2833
▁fires	-13.2834
▁compromise	-13.2837
▁tick	-13.2838
▁lookout	-13.2841
▁attract	-13.2849
made	-13.2859
ily	-13.2865
▁hatched	-13.2871
▁defend	-13.2872
▁unlocking	-13.2872
▁attempts	-13.2878
▁moons	-13.288
▁mindful	-13.2881
ill	-13.2892
were	-13.2897
▁meadows	-13.2916
▁crickets	-13.2917
▁reflect	-13.2918
sorry	-13.2928
each	-13.2938
▁peels	-13.2948
Try	-13.2949
▁pilots	-13.2953
▁Moon	-13.2957
▁dent	-13.2961
▁sets	-13.2961
iolet	-13.2967
▁connect	-13.297
▁sleigh	-13.297
▁Duke	-13.2971
▁desperately	-13.2971
▁peacefulness	-13.2971
▁bellies	-13.2972
▁roamed	-13.2974
▁Nellie	-13.2974
▁carefree	-13.2974
▁Freya	-13.2977
▁astonished	-13.2979
In	-13.2986
▁hippos	-13.2989
▁pedaling	-13.299
▁shyly	-13.2993
▁rowing	-13.2995
▁spoiling	-13.3
▁Candy	-13.3
▁fond	-13.3007
▁hum	-13.3017
▁beeping	-13.3024
▁bushy	-13.3025
▁Make	-13.3039
▁achievement	-13.3044
Jimmy	-13.3057
▁rack	-13.3057
▁guards	-13.306
▁builder	-13.3066
▁musicians	-13.3072
art	-13.3073
▁drill	-13.3082
▁Dee	-13.309
▁approach	-13.3103
iggy	-13.3106
▁Fifi	-13.3111
▁chili	-13.3111
▁Hopper	-13.3111
▁scrubbing	-13.3111
▁Catty	-13.3111
▁binoculars	-13.3114
▁bits	-13.3136
▁beetles	-13.3136
▁Gray	-13.3138
▁Orange	-13.3139
▁spare	-13.3142
▁pee	-13.3152
▁tortoise	-13.318
▁passenger	-13.3188
▁Paw	-13.3196
▁carton	-13.3199
▁bait	-13.3203
Daisy	-13.3216
▁state	-13.322
▁invitations	-13.3222
heard	-13.3222
new	-13.3232
▁capture	-13.3246
▁flow	-13.3252
▁goggles	-13.3255
▁glared	-13.3255
▁continuing	-13.3256
▁stroller	-13.3257
▁Pearl	-13.3257
if	-13.3275
▁kangaroos	-13.3275
▁gates	-13.3295
▁writer	-13.3299
et	-13.3301
▁hunger	-13.3302
Y	-13.3308
upon	-13.3311
▁Nut	-13.3314
▁theatre	-13.3315
▁Me	-13.3317
▁solutions	-13.3318
▁crafts	-13.3323
ainbow	-13.3324
▁nudge	-13.3325
▁frustration	-13.3326
▁tantrum	-13.333
▁pancake	-13.3332
▁gratefully	-13.3332
▁warmed	-13.3351
▁shave	-13.3367
▁fishy	-13.3368
▁puck	-13.3389
▁realise	-13.3394
▁unload	-13.3398
▁Alfred	-13.3399
▁porridge	-13.3399
▁Stephanie	-13.3399
▁sooner	-13.34
▁scrunched	-13.3401
▁allergic	-13.3402
▁sobbing	-13.3402
▁Alison	-13.3403
▁blamed	-13.3407
▁bathed	-13.3407
ick	-13.342
▁aren	-13.3421
▁Puppy	-13.3424
Fire	-13.343
▁Wisdom	-13.3454
▁praise	-13.346
▁weaker	-13.3461
▁Books	-13.3462
ap	-13.3463
▁Bert	-13.347
▁deeply	-13.3474
▁dock	-13.3478
▁loudest	-13.3478
▁sculpture	-13.348
▁Math	-13.351
▁imaginations	-13.3515
▁lever	-13.3516
▁comets	-13.352
▁nations	-13.3526
sh	-13.3528
▁guardian	-13.3546
▁absolutely	-13.3546
▁blessed	-13.3547
▁galloped	-13.3549
▁incredibly	-13.355
▁Wooly	-13.3552
▁headache	-13.3552
▁knobs	-13.3558
▁motorcycles	-13.3562
▁Lucas	-13.3563
▁seriously	-13.3563
▁auntie	-13.3565
▁brakes	-13.3571
▁glittery	-13.3587
Jen	-13.3593
▁structures	-13.36
▁crunch	-13.3611
▁condition	-13.3618
▁exhibit	-13.3626
▁Oink	-13.3627
▁snowflake	-13.3629
▁knit	-13.3633
▁Ice	-13.3669
▁Willy	-13.3681
Abracadabra	-13.3691
▁impress	-13.3692
▁twelve	-13.3695
▁Jennifer	-13.3695
▁Jodie	-13.3697
▁sweetness	-13.3698
▁Biscuit	-13.3699
▁cherished	-13.3701
▁mooed	-13.3702
▁acts	-13.3706
▁footprints	-13.3706
▁mashed	-13.3714
▁earrings	-13.3714
▁Toto	-13.3724
▁pace	-13.3726
▁smoothly	-13.3732
▁helicopters	-13.3733
▁complet	-13.3737
▁meaning	-13.3738
▁chains	-13.3761
▁roam	-13.3771
Nothing	-13.3772
▁floaty	-13.3775
ge	-13.378
▁popsicle	-13.378
eat	-13.3791
▁aprons	-13.3824
ey	-13.3828
Tweet	-13.3831
Teddy	-13.3835
▁disobey	-13.3846
▁fifty	-13.3846
▁rubbish	-13.3847
▁presence	-13.3847
▁Instantly	-13.3847
▁funniest	-13.3847
▁community	-13.3847
▁mushy	-13.385
▁realizing	-13.385
▁Patches	-13.3853
▁lawyers	-13.3853
▁Otherwise	-13.3854
▁gorillas	-13.3857
▁stings	-13.3857
▁ostriches	-13.3866
▁wig	-13.3882
▁Doctor	-13.3883
▁dolly	-13.3889
▁cupboards	-13.389
▁repairing	-13.3893
▁zookeepers	-13.3898
▁plumber	-13.392
▁explode	-13.3921
▁nightmares	-13.3924
▁woodcutter	-13.3926
wanted	-13.3942
▁seasons	-13.3942
▁Sweet	-13.3951
▁boards	-13.3973
▁boarded	-13.3986
▁g	-13.3992
▁kissing	-13.3993
▁ar	-13.3996
▁heavily	-13.4
▁Bernie	-13.4001
▁carnival	-13.4001
▁foggy	-13.4001
▁mesmerised	-13.4001
▁magnificent	-13.4001
▁Flutter	-13.4004
▁whiskers	-13.4005
▁pout	-13.4008
▁dozed	-13.401
▁nearer	-13.4017
▁Bess	-13.4021
▁fl	-13.4025
▁regularly	-13.4026
▁trailer	-13.4027
▁minding	-13.4027
▁wanna	-13.4027
▁G	-13.4028
▁clutch	-13.403
▁locks	-13.4052
▁differences	-13.4056
yle	-13.4065
why	-13.4083
▁Tree	-13.4096
▁Cheese	-13.4102
▁ribbit	-13.4107
▁Peanut	-13.4109
▁rightful	-13.4135
▁sprinkl	-13.4154
▁Sabrina	-13.4157
▁ballerina	-13.4157
▁squish	-13.4157
▁mustaches	-13.4158
▁throne	-13.4158
▁gulped	-13.4159
▁Susy	-13.4159
▁keyhole	-13.4162
▁leaped	-13.4163
▁Nate	-13.4163
▁Cathy	-13.4176
▁deciding	-13.4178
▁cooed	-13.4179
▁scares	-13.4188
get	-13.4189
▁floors	-13.4205
▁stacking	-13.4209
▁Matty	-13.4211
ped	-13.4218
▁la	-13.4218
▁dusted	-13.4227
▁builders	-13.423
▁ingredient	-13.4243
▁flavour	-13.4244
▁cheetah	-13.4245
▁level	-13.4253
▁glance	-13.4254
▁lasted	-13.4255
Everyone	-13.4257
▁farmers	-13.4258
girl	-13.4266
▁hatch	-13.4268
▁deserves	-13.427
▁clue	-13.4284
them	-13.4292
ehind	-13.4302
▁calming	-13.431
▁desperate	-13.4315
▁pollen	-13.4315
▁bulbs	-13.4315
▁nibbling	-13.4316
▁lifeguard	-13.4316
▁restoring	-13.4317
▁tempting	-13.4317
▁caution	-13.4317
▁Taylor	-13.4319
▁instincts	-13.432
▁brightened	-13.4321
▁Sean	-13.4326
▁poop	-13.4329
▁charged	-13.4345
▁indoors	-13.4352
▁glint	-13.4352
▁winking	-13.4354
▁Friendship	-13.4356
▁softest	-13.4357
Sleep	-13.4357
▁mate	-13.4361
▁attaching	-13.4362
▁Lot	-13.4365
▁keen	-13.4367
▁quarreled	-13.4373
▁greatest	-13.4378
don	-13.438
▁spice	-13.4397
▁sweat	-13.4407
▁hips	-13.4418
never	-13.4433
▁delightful	-13.4446
iest	-13.445
▁cooled	-13.4453
▁date	-13.4456
▁groups	-13.4462
▁coop	-13.4466
▁Chuck	-13.4467
▁Fuzz	-13.4469
their	-13.4472
▁challenges	-13.4474
▁Carrie	-13.4477
▁Beatrice	-13.4477
▁centre	-13.4477
▁dustpan	-13.4477
▁gorgeous	-13.4477
▁service	-13.4477
▁macaroni	-13.4477
▁compass	-13.4477
▁stinky	-13.4477
▁reversing	-13.4477
▁dumb	-13.4477
▁depths	-13.4478
▁Jemma	-13.448
▁persistence	-13.4481
▁shaky	-13.4485
▁Jeremy	-13.4485
▁pecking	-13.4485
▁Captain	-13.4501
▁flooded	-13.4508
▁bi	-13.4514
▁displaying	-13.452
▁Clean	-13.4524
▁proved	-13.4537
▁tanks	-13.4538
▁elders	-13.4543
▁clubs	-13.4552
Jump	-13.4558
▁cutest	-13.4561
believe	-13.4569
▁CD	-13.4571
▁route	-13.4582
▁earn	-13.4591
▁heights	-13.4593
ball	-13.4612
ock	-13.463
▁stomachs	-13.4632
▁thrill	-13.4634
▁Sky	-13.4636
▁royal	-13.464
▁halves	-13.4641
▁carousel	-13.4641
▁snoring	-13.4641
▁striking	-13.4641
▁snuggling	-13.4641
▁crispy	-13.4643
▁wrench	-13.4643
▁Crab	-13.4644
▁yummiest	-13.4645
▁quest	-13.4647
▁suggests	-13.4647
▁tiring	-13.4652
▁untangled	-13.4655
▁disagreeing	-13.4658
obin	-13.4678
▁freely	-13.4688
▁Mine	-13.469
▁maps	-13.4692
▁Du	-13.4692
ran	-13.4694
▁Though	-13.4695
▁painful	-13.4708
▁servants	-13.4728
▁possession	-13.4741
▁Beep	-13.4742
Mittens	-13.4747
▁Win	-13.4749
▁signal	-13.4752
▁bolt	-13.4767
▁skips	-13.4773
▁rocky	-13.4787
▁Brad	-13.48
fived	-13.48
▁Greg	-13.4806
▁Ernie	-13.4807
▁cinema	-13.4807
▁disaster	-13.4807
▁rooster	-13.4807
▁enchanted	-13.4807
▁department	-13.4807
▁Miles	-13.4808
▁scowled	-13.4808
▁information	-13.4809
▁concerned	-13.4809
▁fashionable	-13.4809
▁dripped	-13.4809
▁bud	-13.481
▁panting	-13.4811
▁Flappy	-13.4811
▁Nibbles	-13.4811
▁joyous	-13.4814
▁Things	-13.4815
▁toppings	-13.4815
▁Biggie	-13.4815
▁boiled	-13.4816
▁risky	-13.4822
▁wobbles	-13.4837
▁homeless	-13.4842
▁laces	-13.4843
enny	-13.4846
▁stacks	-13.4865
▁sneaks	-13.4874
just	-13.4878
▁winners	-13.4896
▁borrowing	-13.4897
▁webs	-13.4901
Moo	-13.491
▁threads	-13.4913
▁occasions	-13.4914
▁army	-13.4922
▁Elephant	-13.4943
▁speaker	-13.4947
il	-13.4955
▁oldest	-13.4974
▁swoop	-13.4976
▁slurp	-13.4976
▁Aaron	-13.4977
▁Madeline	-13.4977
▁woodpecker	-13.4977
▁managing	-13.4978
▁competing	-13.4978
▁frightening	-13.4978
▁Confused	-13.4981
▁necessary	-13.4981
▁Janice	-13.4984
▁Wolf	-13.4985
▁fuss	-13.4986
!”.	-13.4995
▁Down	-13.4996
▁massages	-13.4998
▁obediently	-13.4999
▁Ethan	-13.4999
▁Toys	-13.501
chases	-13.501
▁winks	-13.5016
▁Yoga	-13.5019
▁Juice	-13.5029
▁online	-13.5034
▁Carly	-13.5036
▁hideout	-13.5042
▁speaks	-13.5045
▁champion	-13.5078
▁pose	-13.5089
▁Off	-13.5107
H	-13.5111
▁purchase	-13.5116
▁Flash	-13.5141
▁progress	-13.5144
▁accomplish	-13.5145
▁security	-13.5149
▁pudding	-13.5149
▁sniffled	-13.5151
▁Jimbo	-13.5151
▁double	-13.5151
▁squawked	-13.5152
▁softness	-13.5153
▁stomping	-13.5154
▁Is	-13.5159
▁gladly	-13.5163
▁robe	-13.5169
▁Mumma	-13.517
▁Was	-13.5178
▁guesses	-13.5179
bird	-13.5182
▁yuck	-13.5187
▁actors	-13.5188
▁echo	-13.5193
▁rumbled	-13.5216
▁rags	-13.5218
now	-13.5219
▁whines	-13.5222
▁valleys	-13.5228
▁ladybird	-13.5229
▁saxophone	-13.5245
▁desks	-13.5265
▁Wait	-13.5285
From	-13.5286
him	-13.5301
came	-13.5307
▁lurk	-13.5308
how	-13.5313
asked	-13.5315
▁launch	-13.5319
ot	-13.532
▁rails	-13.5321
▁farthest	-13.5325
▁dedication	-13.5325
▁possibilities	-13.5325
▁Bethany	-13.5325
▁squirmed	-13.5326
▁twitched	-13.5326
▁urging	-13.5327
▁uncovered	-13.5328
▁Gia	-13.5329
▁disobeyed	-13.533
▁swirling	-13.5332
▁freshly	-13.5345
▁avoided	-13.5345
▁Cuddles	-13.5345
▁Lightning	-13.5347
▁rotted	-13.5347
▁barrels	-13.5355
▁Shadow	-13.5355
▁trunks	-13.5374
▁Tell	-13.5391
▁Turn	-13.54
▁venture	-13.5407
lined	-13.5415
▁scratchy	-13.5417
▁kinder	-13.5436
▁hamburger	-13.5436
▁forty	-13.5437
▁Park	-13.5439
▁--	-13.5441
▁taps	-13.5444
▁oceans	-13.5458
▁doves	-13.5472
llowing	-13.5482
▁lunchbox	-13.5489
▁courageous	-13.5503
▁frisbee	-13.5503
▁dodging	-13.5503
▁gliding	-13.5503
▁tastiest	-13.5503
▁organised	-13.5504
▁studio	-13.5504
▁invisible	-13.5505
▁shimmered	-13.5505
▁dips	-13.5505
▁handlebars	-13.5505
▁fooled	-13.5506
▁swat	-13.5512
▁bu	-13.5514
▁Turtle	-13.5514
▁appears	-13.5514
▁wetter	-13.5514
▁Copper	-13.5516
▁halfway	-13.552
ich	-13.5522
▁Dora	-13.5524
ia	-13.5525
▁petal	-13.5527
▁Bop	-13.5528
▁Nature	-13.5539
▁striped	-13.5552
▁clips	-13.5553
▁Woof	-13.5559
▁ordering	-13.5578
▁Peace	-13.5579
▁Prune	-13.5582
B	-13.5591
▁theirs	-13.5601
good	-13.5604
▁savor	-13.5605
▁nephew	-13.561
Hooray	-13.5614
▁''	-13.5619
▁armor	-13.5623
▁wrists	-13.5629
▁unkind	-13.5648
▁booth	-13.565
▁loads	-13.5655
▁pads	-13.566
▁harvest	-13.5675
Move	-13.5676
▁blame	-13.5677
More	-13.5683
▁Simba	-13.5685
▁polka	-13.5685
▁Diana	-13.5685
▁majestic	-13.5685
▁enclosure	-13.5685
▁science	-13.5686
▁crushed	-13.5687
▁scribbled	-13.5689
▁Heidi	-13.5689
▁automobiles	-13.5691
▁grandkids	-13.5692
▁Jumpy	-13.5693
▁Mighty	-13.5694
Emma	-13.5698
▁Grumpy	-13.5701
▁Oak	-13.5701
▁tingle	-13.5703
▁Fly	-13.5714
▁contained	-13.5722
▁surrendering	-13.573
okay	-13.5738
Believe	-13.5743
▁creams	-13.5758
▁tops	-13.5785
Ooh	-13.579
▁melons	-13.5808
▁flick	-13.5824
▁Okay	-13.5828
▁fluff	-13.5835
▁dives	-13.5838
▁files	-13.5851
overed	-13.5859
▁reappear	-13.5861
▁Marley	-13.587
▁orchard	-13.587
▁ruffled	-13.5871
▁Angie	-13.5874
▁Alfie	-13.5874
▁Marcus	-13.5875
▁nightstand	-13.5878
▁Chewy	-13.5881
▁bet	-13.5882
▁Beary	-13.5885
uddled	-13.5887
▁desserts	-13.5892
andy	-13.5893
▁Monster	-13.5897
▁buckles	-13.59
▁shots	-13.5901
▁ducklings	-13.5906
▁poles	-13.5908
oy	-13.5909
where	-13.5911
▁stitched	-13.5913
▁widely	-13.5917
friends	-13.5923
Her	-13.593
three	-13.5938
▁springing	-13.5943
▁racers	-13.5961
Friends	-13.599
▁showers	-13.5999
▁smoother	-13.601
overing	-13.6018
▁blooms	-13.6025
▁Boy	-13.6032
▁nets	-13.6035
▁Becca	-13.6058
▁Dylan	-13.6058
▁reality	-13.6059
▁Elizabeth	-13.6063
friend	-13.6064
▁Buttons	-13.6075
▁strum	-13.6077
▁pickles	-13.6081
hi	-13.6091
two	-13.6092
Make	-13.6113
▁hoof	-13.6129
▁creak	-13.6134
▁hates	-13.614
▁raked	-13.6145
▁guitars	-13.6147
▁Cars	-13.6154
▁pineapple	-13.618
▁crumb	-13.618
▁sparrow	-13.6183
▁cans	-13.619
▁Missy	-13.6195
▁nights	-13.6199
▁lightly	-13.6204
atty	-13.6207
▁code	-13.621
ful	-13.6212
▁habit	-13.6214
▁snowing	-13.6218
Dog	-13.6222
▁laws	-13.6223
▁distract	-13.6243
▁vacuum	-13.6251
▁Harriet	-13.6251
Leo	-13.6251
▁commotion	-13.6251
▁devastated	-13.6251
▁supermarket	-13.6251
▁spiky	-13.6251
▁discussion	-13.6252
▁antlers	-13.6252
▁threatened	-13.6252
▁bounded	-13.6253
▁Spanish	-13.6256
▁energized	-13.6256
▁confidently	-13.6256
▁approval	-13.6257
▁Chicky	-13.626
▁N	-13.6268
▁skating	-13.6275
▁whisk	-13.6275
▁fiercely	-13.6276
▁dries	-13.6282
▁projects	-13.6288
▁succeeding	-13.629
▁fright	-13.6293
▁beg	-13.6309
▁offers	-13.6314
osy	-13.6317
▁pairs	-13.632
▁peeks	-13.6322
who	-13.6331
Something	-13.6332
▁ashes	-13.6333
Silly	-13.6341
▁cloths	-13.6347
Enjoy	-13.6366
▁scrape	-13.6366
▁tin	-13.6395
▁mailing	-13.6397
!",	-13.6398
Jenny	-13.6402
▁prick	-13.6405
together	-13.6408
el	-13.6409
▁juggle	-13.6432
▁hurtful	-13.6442
Beware	-13.6444
▁Lynn	-13.6446
▁Faith	-13.6447
▁horror	-13.6447
▁Walter	-13.6447
▁Puddles	-13.6447
▁addition	-13.6447
▁gradually	-13.6447
▁loneliness	-13.6447
▁practising	-13.6447
▁considerate	-13.6448
▁Pixie	-13.6452
▁Wilbur	-13.6452
▁Mousy	-13.6452
▁scolding	-13.6453
▁tightened	-13.6457
▁Oscar	-13.6458
▁palms	-13.6458
▁Father	-13.6462
▁surprisingly	-13.6463
▁thinner	-13.6464
Everything	-13.6469
Bless	-13.6474
▁roller	-13.6479
enthusiastically	-13.648
ding	-13.6481
▁wrecked	-13.6488
▁accepting	-13.6501
come	-13.6518
▁gooey	-13.6529
▁snip	-13.6533
▁ages	-13.6534
▁mo	-13.6556
Mark	-13.6559
▁kindest	-13.6565
▁targets	-13.6567
▁grasp	-13.6574
▁reaction	-13.6575
▁disagreement	-13.6579
▁undo	-13.6583
▁capes	-13.6584
▁clip	-13.66
went	-13.6603
▁fans	-13.6603
▁Al	-13.6606
▁beaks	-13.6606
▁ouch	-13.661
▁sleeps	-13.6613
▁spi	-13.6633
▁folds	-13.6635
▁rustle	-13.6638
▁sells	-13.664
▁narrow	-13.664
▁copie	-13.6642
▁Nan	-13.6644
▁tutu	-13.6647
▁bobbed	-13.6647
▁atmosphere	-13.6647
▁trophies	-13.6647
▁refusing	-13.6648
▁sickness	-13.6649
▁Singing	-13.6649
▁panicking	-13.6651
▁Joseph	-13.6652
looked	-13.6654
▁swirled	-13.666
▁mats	-13.6661
▁scar	-13.6662
Cat	-13.6663
▁attempt	-13.6665
▁darted	-13.6665
▁bleeds	-13.6675
▁tucks	-13.6676
Lisa	-13.6682
▁suitcases	-13.6686
Shrink	-13.6687
▁proceed	-13.6689
▁supplying	-13.6691
▁Old	-13.6692
▁twirls	-13.6696
▁stretcher	-13.6704
coming	-13.6709
▁pearls	-13.6739
Working	-13.6754
F	-13.6761
▁fries	-13.6769
▁tents	-13.6773
▁voyage	-13.6775
▁honeycomb	-13.678
▁doggie	-13.6784
▁deck	-13.6789
more	-13.681
▁flyer	-13.6818
▁performer	-13.6833
▁lantern	-13.6836
▁Yes	-13.6841
▁Wake	-13.6841
▁damp	-13.6842
▁Poo	-13.6842
heir	-13.6844
▁perch	-13.6847
▁weights	-13.6847
Children	-13.6848
▁retrieve	-13.6851
▁peculiar	-13.6851
▁platform	-13.6851
▁injuries	-13.6851
▁emergencies	-13.6851
▁chattered	-13.6855
▁clucked	-13.6855
▁correct	-13.6855
▁Bree	-13.6855
▁Marty	-13.6857
▁alley	-13.6857
▁bill	-13.6858
▁barbecue	-13.6859
▁protector	-13.6859
▁Play	-13.6859
tumbling	-13.6868
▁Smokey	-13.6868
▁Puff	-13.6868
stop	-13.6873
▁batch	-13.6877
▁phones	-13.6877
ace	-13.6877
▁tickly	-13.6883
some	-13.6905
▁Ed	-13.6909
▁Open	-13.6912
▁biscuits	-13.6912
▁wiggles	-13.6922
▁hopeless	-13.693
▁prices	-13.694
▁clearer	-13.6944
▁respond	-13.6954
▁stormy	-13.6954
off	-13.6959
▁raincoats	-13.6976
▁partner	-13.6988
▁collage	-13.699
▁Boom	-13.6992
▁Afterward	-13.6993
▁respecting	-13.6997
▁rider	-13.6999
▁ladybugs	-13.701
▁musical	-13.7011
car	-13.7026
ink	-13.7033
tally	-13.7045
▁Cow	-13.705
▁sacks	-13.7051
help	-13.7057
▁stiff	-13.7059
▁Paige	-13.7059
▁Debbie	-13.7059
▁mischief	-13.7059
▁heaviest	-13.7059
▁juggling	-13.7059
▁ceremony	-13.7059
▁toothpaste	-13.7059
▁tingling	-13.706
▁grumbling	-13.706
▁Charles	-13.706
▁pounding	-13.706
▁bullies	-13.7061
▁Blink	-13.7061
▁terribly	-13.7063
▁Stacy	-13.7064
▁Surprised	-13.7064
▁Mason	-13.7065
▁abilities	-13.7066
▁unloaded	-13.7066
▁Ostrich	-13.7069
▁brighten	-13.7081
aw	-13.7082
▁interest	-13.7082
▁begun	-13.7083
would	-13.7094
ent	-13.7095
▁Jose	-13.7097
Shoo	-13.7101
▁Chess	-13.7101
▁entering	-13.7104
▁Ned	-13.7105
▁Nicky	-13.7108
▁resume	-13.711
og	-13.7111
▁wicked	-13.7115
▁Cookies	-13.7119
▁hurrying	-13.7141
▁Trees	-13.7148
▁Juliet	-13.7153
eading	-13.7168
▁learner	-13.7183
▁spaces	-13.7188
▁Small	-13.7199
▁length	-13.72
▁surrounding	-13.7206
▁chirps	-13.7219
ts	-13.7222
too	-13.7236
▁unicorns	-13.7244
▁Hi	-13.7248
Should	-13.7262
▁stretchy	-13.7262
igzag	-13.7269
▁reckless	-13.7271
▁Isla	-13.7272
▁Frustrated	-13.7272
▁confusing	-13.7273
▁liar	-13.7273
▁disgusted	-13.7274
▁Cole	-13.7274
▁layer	-13.7275
▁pea	-13.7275
▁autumn	-13.7276
▁arrested	-13.7276
▁adjust	-13.7276
▁tripping	-13.7277
▁Mac	-13.7278
▁jaws	-13.7279
▁neighed	-13.7279
▁Socky	-13.7282
▁concentrated	-13.7283
▁Willow	-13.7286
▁Bees	-13.7288
▁ripples	-13.7297
Free	-13.7299
▁values	-13.7318
▁delaying	-13.732
▁Jam	-13.7326
▁du	-13.733
▁Friend	-13.7333
▁Cluck	-13.7339
▁resisting	-13.7341
▁zigzagg	-13.7346
▁shame	-13.7353
▁runny	-13.7353
▁Justin	-13.7356
▁sung	-13.7357
▁listener	-13.736
▁streaming	-13.7371
sky	-13.7391
Two	-13.7398
▁passion	-13.7408
▁croak	-13.7412
▁explanation	-13.7416
▁dodge	-13.7418
▁cornfield	-13.7421
▁detective	-13.7422
▁backward	-13.7432
olly	-13.7473
▁Ash	-13.7478
▁concentrate	-13.7479
▁zig	-13.7484
▁yawns	-13.7485
▁Hanna	-13.7487
▁honor	-13.7489
▁nanny	-13.7489
▁Pingu	-13.7489
▁Alicia	-13.7489
▁granny	-13.7489
▁cities	-13.7489
▁Noah	-13.7489
▁farewell	-13.7489
▁strict	-13.7489
▁horrible	-13.7489
▁harmful	-13.749
▁equally	-13.749
▁ungrateful	-13.749
▁sixty	-13.749
▁Anya	-13.7491
▁goldfish	-13.7493
▁Wilma	-13.7494
▁gardening	-13.7495
▁lovingly	-13.7495
▁scaly	-13.7499
▁leaping	-13.75
▁stained	-13.7505
▁lens	-13.7518
▁niece	-13.7519
▁Jackson	-13.7519
▁Brother	-13.7524
▁Goose	-13.7535
▁clothing	-13.7553
▁Thunder	-13.7554
▁spelling	-13.757
low	-13.7574
▁quicker	-13.7575
▁cluck	-13.7583
▁toss	-13.7584
▁folders	-13.759
▁richer	-13.7593
▁exams	-13.7602
▁wrappers	-13.7603
Sharing	-13.7615
own	-13.7616
▁mower	-13.7617
▁tales	-13.7618
Ice	-13.7636
▁dandelion	-13.7644
▁grandparent	-13.7645
▁biscuit	-13.7645
▁shortcut	-13.7649
▁glows	-13.7661
▁Squeak	-13.7664
▁bold	-13.7665
see	-13.7666
▁Pizza	-13.7667
▁clover	-13.7667
▁introduc	-13.7673
▁scientists	-13.7676
▁Find	-13.7682
▁lighting	-13.7684
▁Imagine	-13.7688
could	-13.7694
▁glimpse	-13.7696
▁conquer	-13.7707
▁gallop	-13.7708
▁gruff	-13.771
▁Tracy	-13.7711
▁eleven	-13.7711
▁buddies	-13.7711
▁boulder	-13.7712
▁Cleo	-13.7712
▁padlock	-13.7712
▁Surprisingly	-13.7712
▁contentment	-13.7712
▁settling	-13.7712
▁skinny	-13.7714
Three	-13.7715
▁payoff	-13.7716
upert	-13.7723
▁Cherry	-13.7728
▁nursery	-13.7732
▁pitcher	-13.7736
▁combs	-13.7742
▁Panda	-13.7743
welcome	-13.7745
▁Fishy	-13.7747
▁pastor	-13.7764
▁pucker	-13.7766
▁sleeves	-13.7768
As	-13.7768
▁shields	-13.778
▁kill	-13.779
▁Dinner	-13.7797
▁Bright	-13.7799
Fly	-13.7812
▁sculptures	-13.7813
Hop	-13.7817
▁Anything	-13.7828
Eat	-13.783
▁elder	-13.7846
▁lo	-13.7852
ched	-13.7861
fun	-13.7865
▁erasers	-13.7896
▁speedy	-13.7898
▁rods	-13.7899
▁soul	-13.7906
▁Want	-13.7917
▁smash	-13.793
▁blush	-13.7931
ound	-13.7935
▁cruel	-13.7937
▁jeans	-13.7938
▁Marvin	-13.7939
▁Buffy	-13.7939
▁Buster	-13.7939
▁ninety	-13.7939
▁wriggling	-13.7939
▁seventy	-13.7939
▁slightly	-13.7939
▁grandchildren	-13.7939
▁foreshadowed	-13.794
▁snarled	-13.794
felt	-13.7941
▁recovered	-13.7941
▁studies	-13.7946
▁pedalled	-13.7947
▁arrest	-13.7947
▁packet	-13.7952
▁lumpy	-13.7953
▁Percy	-13.7956
creams	-13.7958
tting	-13.7959
umped	-13.7972
▁slime	-13.7972
▁steaming	-13.7993
▁grownups	-13.7993
▁Snow	-13.7997
house	-13.8001
▁obstacles	-13.8003
▁wax	-13.8014
▁r	-13.8015
hose	-13.8028
ippy	-13.8043
▁training	-13.8046
▁hammering	-13.8047
dog	-13.8051
Push	-13.8057
▁praises	-13.8063
down	-13.8063
smiled	-13.8078
named	-13.8084
▁More	-13.8085
▁connection	-13.81
ce	-13.8101
▁sleeve	-13.8113
▁misty	-13.8119
▁fights	-13.8126
▁releas	-13.8138
smelling	-13.8141
▁aisles	-13.8144
▁somehow	-13.8149
▁chicks	-13.8151
▁Anytime	-13.8157
epeat	-13.8164
▁pa	-13.8165
▁thirst	-13.8167
▁Derek	-13.8171
▁fondly	-13.8171
▁hungrier	-13.8171
▁independence	-13.8172
▁overflowing	-13.8173
▁nuggets	-13.8174
▁appetite	-13.8174
tealing	-13.8175
▁hopefully	-13.8176
▁anybody	-13.8176
▁escaping	-13.8179
▁potty	-13.8179
▁begging	-13.818
▁lobby	-13.8181
▁sneakers	-13.8183
▁Erin	-13.8183
▁Close	-13.8187
▁howled	-13.8193
▁soggy	-13.8195
▁Spider	-13.8198
▁pals	-13.8199
▁Spirit	-13.8201
Mary	-13.8202
Whenever	-13.8202
▁switches	-13.8203
▁squashes	-13.8204
▁numbered	-13.8207
run	-13.8211
▁Yellow	-13.8212
▁leopards	-13.8219
▁Most	-13.822
▁Dancing	-13.8225
▁cucumbers	-13.8235
loud	-13.8257
▁seeking	-13.8265
▁Browny	-13.83
▁lectures	-13.8301
▁beeps	-13.8306
park	-13.8308
▁suck	-13.8315
▁owning	-13.8315
▁Mole	-13.8324
▁sealed	-13.8327
▁bubbled	-13.8337
▁obstacle	-13.8343
▁begs	-13.8348
Catch	-13.8357
▁Bean	-13.8363
boy	-13.8369
did	-13.8376
▁mini	-13.8388
▁Scott	-13.8401
indness	-13.8408
▁suspicious	-13.8409
around	-13.8409
▁Africa	-13.8409
▁Petal	-13.8409
▁wondrous	-13.8409
▁solid	-13.841
▁abandoned	-13.841
▁shoreline	-13.841
▁interrupted	-13.8411
▁uncover	-13.8412
▁tiara	-13.8413
▁Faye	-13.8413
▁sandals	-13.8415
▁glistened	-13.8415
▁Nelly	-13.8417
▁calf	-13.842
▁tippy	-13.8421
gain	-13.8424
▁Grandad	-13.8428
▁Willie	-13.8433
▁props	-13.8434
▁Barky	-13.8446
▁fist	-13.8451
▁skates	-13.8456
▁curves	-13.8463
▁Bug	-13.8466
▁braid	-13.8466
▁outsmart	-13.8468
Jim	-13.847
▁eighty	-13.8478
▁None	-13.8478
▁ironing	-13.8479
▁fourth	-13.8482
▁oars	-13.8486
▁Sundays	-13.8493
▁behold	-13.8495
▁Stretch	-13.8498
▁posters	-13.8511
▁grumble	-13.8548
▁host	-13.8552
Got	-13.8557
▁missiles	-13.8566
▁bruise	-13.8574
▁cigarette	-13.8586
▁cucumber	-13.8587
▁blessing	-13.8588
▁Pup	-13.8593
Climb	-13.8594
▁carved	-13.8606
▁snuggles	-13.8609
▁bangs	-13.8613
laying	-13.8615
▁mustn	-13.8622
Trust	-13.8626
▁warns	-13.8626
▁pistols	-13.8635
Freeze	-13.8636
▁hint	-13.8646
Broccoli	-13.8652
▁Bozo	-13.8653
▁Lexi	-13.8653
▁Brooke	-13.8653
▁chaos	-13.8653
▁Gloria	-13.8653
▁Monica	-13.8653
▁quizzes	-13.8653
▁strummed	-13.8653
▁unnecessary	-13.8653
▁Sharon	-13.8653
▁knitting	-13.8653
▁separating	-13.8654
▁Annabel	-13.8655
▁obliged	-13.8657
▁coolness	-13.8658
▁cursed	-13.8659
▁workshop	-13.8659
▁Crystal	-13.8659
▁nightfall	-13.866
▁furious	-13.866
▁strolling	-13.8661
ollie	-13.8662
▁Matthew	-13.8665
▁arrives	-13.8666
▁sipping	-13.8667
▁holidays	-13.8668
▁captured	-13.8672
▁Ellen	-13.8682
▁pinches	-13.8684
▁squeaks	-13.8694
▁figur	-13.8695
▁da	-13.8707
▁hobby	-13.8708
▁Mint	-13.8711
▁wasteful	-13.8711
▁vast	-13.8742
▁possessions	-13.8752
▁Tuesdays	-13.8756
▁flavours	-13.8757
▁melts	-13.8766
▁bandaged	-13.8782
▁Sid	-13.8788
when	-13.8794
aven	-13.8796
ut	-13.8802
▁mixes	-13.8808
▁chatter	-13.8814
P	-13.8815
▁album	-13.8822
▁tow	-13.8826
▁hammered	-13.8829
▁po	-13.8832
▁coconut	-13.8835
iding	-13.8835
▁smoothie	-13.8847
▁blob	-13.8857
▁Salt	-13.8863
something	-13.8864
▁fixer	-13.8872
▁anyways	-13.8876
Close	-13.8879
espect	-13.8898
▁consider	-13.89
▁Tippy	-13.8902
▁murky	-13.8903
▁Gail	-13.8903
▁Dawn	-13.8903
▁Graham	-13.8903
▁fifteen	-13.8903
▁charity	-13.8903
▁Mustache	-13.8903
▁grinning	-13.8903
▁blurry	-13.8904
▁challenging	-13.8904
▁replacing	-13.8904
▁Pippy	-13.8905
▁Layla	-13.8905
▁waitress	-13.8906
▁unlike	-13.8907
▁Gerry	-13.8909
▁Audrey	-13.8909
▁Fierce	-13.8909
▁acrobats	-13.8909
Aw	-13.8911
▁riches	-13.8914
▁ogre	-13.8914
▁Dizzy	-13.8922
▁rattle	-13.8926
▁Music	-13.893
▁dates	-13.8937
▁timid	-13.895
▁thoughtfully	-13.8951
▁witches	-13.8953
▁nuzzle	-13.8955
▁Spark	-13.8967
four	-13.8981
▁screech	-13.8989
▁posts	-13.8992
▁boatman	-13.8994
Whoa	-13.8996
▁Maxine	-13.8999
nine	-13.9005
▁Faster	-13.9007
ita	-13.9009
▁fixes	-13.9012
▁hu	-13.9014
hearted	-13.9019
W	-13.902
▁recipes	-13.9031
▁cares	-13.9048
▁squawk	-13.9079
▁crows	-13.909
▁gumball	-13.9091
▁invention	-13.9092
▁st	-13.9103
▁aloud	-13.9115
▁Nell	-13.9141
▁Last	-13.9146
▁conversations	-13.9157
Blech	-13.9157
▁saddle	-13.9158
▁guidance	-13.916
▁captivated	-13.916
▁victorious	-13.916
▁imaginative	-13.916
▁admitted	-13.916
▁quarrelling	-13.916
▁fading	-13.9161
▁coaster	-13.9162
▁scuttle	-13.9164
Writing	-13.9165
▁sweating	-13.9166
▁North	-13.9166
▁Bailey	-13.9166
▁Wiggly	-13.9166
▁excellent	-13.9166
▁disappears	-13.9168
▁sweeping	-13.9169
▁useless	-13.9171
▁impatiently	-13.9185
▁Stripes	-13.9187
▁stalks	-13.9195
▁Too	-13.9201
With	-13.9204
▁regretful	-13.9209
▁sicker	-13.9222
▁limits	-13.9225
six	-13.9226
▁Dove	-13.9229
ipper	-13.9231
ide	-13.9266
“	-13.927
▁bedside	-13.9271
▁spirits	-13.9272
▁sp	-13.928
▁contents	-13.9283
▁importantly	-13.9283
▁Promise	-13.9292
▁setup	-13.93
make	-13.9302
▁grain	-13.9304
ck	-13.9309
filled	-13.9347
▁carriage	-13.9351
▁device	-13.9352
▁Car	-13.9353
Mmmm	-13.9357
▁curls	-13.9365
▁storybook	-13.9369
▁Lu	-13.9375
▁position	-13.9377
ah	-13.9386
▁seated	-13.9394
ned	-13.9395
▁golfer	-13.9413
.'"	-13.9416
▁affect	-13.9418
▁Cody	-13.9422
▁Jules	-13.9422
▁injury	-13.9423
▁stylish	-13.9423
▁cabbage	-13.9423
▁bobbing	-13.9423
▁emptied	-13.9423
▁pavement	-13.9423
▁unscrew	-13.9423
▁Gradually	-13.9423
▁potential	-13.9423
▁silverware	-13.9423
▁unlucky	-13.9423
▁godmother	-13.9423
▁snipped	-13.9423
aylee	-13.9423
▁adored	-13.9424
▁rejoiced	-13.9424
▁twinkly	-13.9425
▁envy	-13.9426
▁whining	-13.9427
▁scooted	-13.9427
▁creaking	-13.9428
▁securely	-13.9428
ave	-13.9429
▁creaked	-13.9429
▁stripe	-13.9437
tock	-13.9437
▁White	-13.9443
because	-13.9443
▁Wise	-13.9447
spected	-13.9449
▁flippers	-13.9449
▁Angela	-13.945
▁Think	-13.9455
▁classes	-13.9466
▁cables	-13.9469
Careful	-13.9476
ies	-13.9489
▁dodges	-13.9508
▁sunk	-13.9514
▁popsicles	-13.954
▁total	-13.9549
▁squat	-13.9552
▁Ha	-13.9552
uff	-13.9554
▁stems	-13.956
▁Silly	-13.9568
▁Flowers	-13.9568
▁stares	-13.9592
ers	-13.9605
Bird	-13.9615
▁curve	-13.9624
eeling	-13.9641
▁sleepover	-13.966
▁Carrot	-13.966
age	-13.9663
ac	-13.9666
▁jingle	-13.9683
▁fences	-13.969
▁innocent	-13.9692
▁salsa	-13.9692
▁extreme	-13.9693
▁trousers	-13.9693
▁crumpled	-13.9693
▁wrinkly	-13.9693
▁disobedient	-13.9693
▁complicated	-13.9693
▁dirtier	-13.9693
▁BunBun	-13.9693
▁construction	-13.9693
▁achieving	-13.9693
▁perked	-13.9693
▁contentedly	-13.9694
▁apartment	-13.9694
▁warriors	-13.9695
▁unfolded	-13.9695
▁whizzed	-13.9695
▁creepy	-13.9695
▁tablecloth	-13.9696
▁antennae	-13.9697
▁Marcy	-13.9698
▁actor	-13.9699
▁Pumpkin	-13.9699
▁Silver	-13.9699
▁described	-13.97
Different	-13.9701
▁splitting	-13.9702
▁vitamins	-13.9703
▁puffed	-13.9704
▁bruised	-13.9705
▁traveler	-13.9706
▁fulfilled	-13.9708
Phew	-13.9711
▁Pasta	-13.9714
▁Mei	-13.9715
▁mastered	-13.9716
▁sips	-13.9716
▁curry	-13.9721
▁Yummy	-13.9739
▁flowed	-13.9744
▁Soup	-13.9746
▁caw	-13.9748
▁kneels	-13.9751
▁newly	-13.9752
▁adventurers	-13.9756
▁refuses	-13.9757
▁chugged	-13.9759
▁brag	-13.9762
▁carve	-13.9764
Higher	-13.9765
Emily	-13.9771
▁remains	-13.9786
▁Amen	-13.9787
▁combing	-13.9792
▁bending	-13.9792
▁Tia	-13.9824
▁strikes	-13.9828
▁spelled	-13.9835
▁scrunch	-13.9837
▁pointer	-13.9838
war	-13.9838
started	-13.9846
pilot	-13.9872
May	-13.9879
▁pail	-13.9894
▁unwrap	-13.9896
▁crust	-13.9908
▁fail	-13.9919
▁measures	-13.9925
▁remov	-13.9925
▁rink	-13.9927
▁surfer	-13.9933
▁Abbi	-13.9944
▁streams	-13.9953
▁chunk	-13.9962
▁silk	-13.9968
eight	-13.997
▁Plus	-13.997
▁Stacey	-13.997
▁tastier	-13.997
▁Melanie	-13.997
▁Felicity	-13.9971
▁register	-13.9971
▁stunned	-13.9971
▁electric	-13.9971
▁staircase	-13.9971
▁embarrassment	-13.9971
▁Stephen	-13.9971
▁crooked	-13.9971
▁Stripey	-13.9973
▁pasture	-13.9973
▁clothesline	-13.9974
seven	-13.9975
▁Nia	-13.9975
▁combined	-13.9975
▁Flower	-13.9977
▁Agnes	-13.9977
▁Horsy	-13.9977
▁quality	-13.9977
▁droplets	-13.9979
▁promising	-13.9981
▁dragging	-13.9981
▁curved	-13.9981
▁Sidney	-13.9984
▁whirring	-13.9985
Brrr	-13.9991
▁kernels	-13.9992
▁drifting	-13.9997
▁chewy	-14
▁howling	-14.0004
▁messing	-14.0008
▁thousands	-14.001
▁normally	-14.0012
free	-14.0017
▁cutters	-14.0019
▁enjoys	-14.002
▁copies	-14.0033
▁Beef	-14.0035
▁requests	-14.0057
▁marvel	-14.0058
▁deeds	-14.0059
N	-14.007
▁oink	-14.0075
▁cracking	-14.008
v	-14.0086
▁Milk	-14.0089
▁handles	-14.0091
▁loosen	-14.0095
▁fabrics	-14.0114
ending	-14.0134
▁Birds	-14.0144
▁greater	-14.0152
▁searches	-14.0156
aring	-14.0166
Peter	-14.0169
▁beanstalk	-14.018
▁attendant	-14.0183
▁jay	-14.0183
Tell	-14.019
▁tours	-14.0192
Johnny	-14.0198
▁due	-14.0201
▁speck	-14.0203
▁springs	-14.0214
▁tighten	-14.0215
▁gestures	-14.0227
▁feared	-14.0234
aving	-14.0241
▁glide	-14.0245
▁Bobbi	-14.0245
▁crumble	-14.0247
▁erupt	-14.0248
coloured	-14.0251
▁arrange	-14.0253
▁parlor	-14.0256
▁Fanny	-14.0256
▁Tabby	-14.0256
▁impact	-14.0256
▁unison	-14.0256
▁yummier	-14.0256
▁talons	-14.0256
▁fishermen	-14.0256
▁unstuck	-14.0256
▁disturbance	-14.0257
▁daddies	-14.0257
▁supportive	-14.0259
▁Amelie	-14.0259
▁background	-14.0259
▁cawed	-14.026
Sir	-14.026
▁Mackenzie	-14.0263
▁suggesting	-14.027
▁rustled	-14.0271
▁chances	-14.0272
▁slot	-14.0276
▁scurry	-14.0279
▁puffy	-14.0281
▁ra	-14.0284
▁crunching	-14.0292
haw	-14.0297
▁Joel	-14.0298
▁remaining	-14.0316
▁neigh	-14.0319
▁mended	-14.0322
▁colouring	-14.0323
▁stash	-14.0323
Blue	-14.0325
▁le	-14.033
▁blessings	-14.0335
▁shades	-14.0336
Ten	-14.0337
▁plow	-14.0341
!'"	-14.0353
▁Wednesdays	-14.0373
▁cleans	-14.0391
▁forming	-14.0393
▁strok	-14.0393
▁Mya	-14.0398
..."	-14.0399
▁trudge	-14.0404
handed	-14.0407
▁ladders	-14.0407
Jake	-14.0412
lowers	-14.0431
air	-14.0433
▁Mild	-14.0434
▁guarded	-14.0455
cared	-14.0456
put	-14.0456
▁spades	-14.0461
▁priest	-14.0482
▁postcard	-14.0482
▁ooh	-14.0486
▁crackle	-14.0487
▁Drop	-14.0495
G	-14.0496
▁brake	-14.0507
Alice	-14.0509
Five	-14.0513
▁Drink	-14.0526
hand	-14.0528
Cool	-14.0531
▁cutter	-14.0536
▁mound	-14.0537
love	-14.0537
Surrender	-14.0538
▁dishonest	-14.054
▁wriggle	-14.0541
▁disappoint	-14.0545
nderneath	-14.0547
▁Bunbun	-14.055
▁Nathan	-14.055
▁Elisa	-14.055
▁trimmed	-14.055
▁Benjamin	-14.055
▁Lancelot	-14.055
▁sledding	-14.055
▁destruction	-14.055
▁breadcrumbs	-14.0551
▁Trina	-14.0551
▁messier	-14.0551
▁receiving	-14.0552
from	-14.0552
▁uniting	-14.0552
▁blended	-14.0552
▁selfishness	-14.0552
▁existed	-14.0553
▁cleverness	-14.0553
▁raisins	-14.0553
▁snuggly	-14.0553
▁croaking	-14.0555
▁shifted	-14.0555
▁silky	-14.0556
▁Mindy	-14.0558
▁Hippy	-14.0558
▁quickest	-14.0559
▁cheesy	-14.0565
▁subjects	-14.0568
▁Cora	-14.057
▁Petey	-14.0573
▁journeyed	-14.0574
▁gobble	-14.0579
home	-14.0585
Wake	-14.0586
▁jumper	-14.0587
▁Jog	-14.0591
▁options	-14.0601
▁troll	-14.0606
▁Climb	-14.0608
says	-14.0614
▁boost	-14.0614
▁Sal	-14.0616
▁islands	-14.0616
▁adopt	-14.062
▁Bugs	-14.0626
will	-14.0627
▁jacks	-14.0629
▁Whistle	-14.063
▁flashlights	-14.0653
▁rises	-14.0654
box	-14.066
▁bills	-14.0661
met	-14.0663
▁earthquakes	-14.07
▁Goodnight	-14.0706
▁Slow	-14.071
▁reel	-14.0714
▁Chocolate	-14.0718
got	-14.0718
▁punch	-14.0719
▁Lions	-14.0732
da	-14.0732
▁parking	-14.0742
▁afloat	-14.0757
▁squeal	-14.0762
want	-14.0772
▁doorknob	-14.0772
▁demands	-14.0795
▁snails	-14.0798
▁clutche	-14.0804
ater	-14.0818
▁Brave	-14.0822
▁whirl	-14.0825
playing	-14.0826
▁shaker	-14.0827
night	-14.0844
▁Jade	-14.0848
▁Beetle	-14.0851
▁reassuring	-14.0853
▁Pedro	-14.0853
▁Barney	-14.0853
▁sprung	-14.0853
▁Furry	-14.0853
▁pendant	-14.0853
▁Sebastian	-14.0853
▁principal	-14.0853
▁Thumper	-14.0853
▁stunning	-14.0853
▁timidly	-14.0853
▁childhood	-14.0854
▁Winnie	-14.0854
▁despair	-14.0854
▁wobbling	-14.0854
▁compost	-14.0854
▁bare	-14.0855
things	-14.0855
▁teammates	-14.0859
▁Lyla	-14.086
▁smoky	-14.086
▁tiredness	-14.0861
▁seahorse	-14.0861
▁Lula	-14.0861
▁toughest	-14.0864
Susie	-14.0869
▁ointment	-14.087
▁Dani	-14.087
▁fastened	-14.087
▁Purr	-14.0871
▁Pole	-14.0872
▁uncertain	-14.0876
▁Glow	-14.0881
▁plus	-14.0883
▁Near	-14.0884
▁Jelly	-14.0885
▁catcher	-14.0886
▁mitts	-14.0888
▁grains	-14.0888
▁Y	-14.0889
▁boomed	-14.0889
▁Alexa	-14.0892
Twinkle	-14.0895
▁gentleman	-14.0896
▁faithful	-14.0901
▁Money	-14.0902
▁Dogs	-14.0902
Pizza	-14.0907
▁mast	-14.0909
▁thankfully	-14.0923
▁motors	-14.0926
▁repairs	-14.0936
▁whizz	-14.0942
▁howl	-14.0947
▁closest	-14.0948
Say	-14.0949
▁lifetime	-14.096
▁fortunate	-14.0963
▁Merry	-14.0964
▁trails	-14.097
fish	-14.0975
Want	-14.098
!'.	-14.102
▁frames	-14.1021
▁spoken	-14.1028
▁halo	-14.1039
take	-14.1044
thing	-14.1051
▁wh	-14.1062
▁pouts	-14.1079
▁bumblebee	-14.1082
▁pounce	-14.1084
Tak	-14.1089
▁owns	-14.1095
▁goblin	-14.1095
▁Three	-14.1099
▁critter	-14.11
▁Bubble	-14.1112
wow	-14.1115
▁starry	-14.1118
Grow	-14.1129
▁grownup	-14.1142
▁Ding	-14.1145
▁guilt	-14.1157
covered	-14.1163
▁journeys	-14.1164
▁Dina	-14.1164
▁exact	-14.1165
▁Edward	-14.1166
▁Crusty	-14.1166
▁grizzly	-14.1166
▁fanciest	-14.1166
▁territory	-14.1166
▁Marla	-14.1166
▁descended	-14.1167
▁whirled	-14.1168
▁drown	-14.1169
▁farms	-14.1172
▁Bambi	-14.1173
▁capable	-14.1173
▁Timothy	-14.1173
▁ouchy	-14.1173
▁fingertips	-14.1174
▁Smiling	-14.1174
▁awaited	-14.1174
▁hardworking	-14.1176
▁notebooks	-14.1178
▁Owen	-14.1178
▁gadgets	-14.118
ours	-14.118
▁outstretched	-14.1181
▁Officer	-14.1182
▁firetruck	-14.1187
▁Shark	-14.1189
▁nightlight	-14.1191
▁fetches	-14.1191
▁Mack	-14.1193
▁Wink	-14.1198
▁tilts	-14.1198
▁anxiously	-14.1201
nother	-14.1205
▁caf	-14.1205
▁heated	-14.1214
Drink	-14.1217
▁erased	-14.1223
▁Bu	-14.1226
Congratulations	-14.1229
▁waddle	-14.1233
▁thoughts	-14.1246
▁events	-14.1251
▁unlocks	-14.1262
ke	-14.1275
▁playfully	-14.1283
▁shrimps	-14.1285
▁Bloom	-14.1286
making	-14.1297
▁”	-14.133
▁blinks	-14.1333
la	-14.134
▁Gas	-14.1347
▁mold	-14.1367
▁handled	-14.1376
▁tossing	-14.1381
▁climber	-14.1397
▁J	-14.1399
▁rhyme	-14.1408
ping	-14.1408
▁keyboard	-14.1409
▁shaken	-14.141
▁donate	-14.1413
▁pinecone	-14.1421
▁stump	-14.1428
▁snore	-14.1431
▁recordings	-14.144
People	-14.1443
▁Dare	-14.1445
Sammy	-14.1449
▁contented	-14.1449
▁hammers	-14.1467
Stir	-14.1472
▁Fluff	-14.1478
▁hooked	-14.1479
Even	-14.1483
▁plunge	-14.1484
▁transform	-14.1484
▁Casey	-14.1488
▁Bertha	-14.1488
▁instant	-14.1488
▁infection	-14.1488
▁accessories	-14.1488
▁favor	-14.1489
▁pruning	-14.1489
▁gleaming	-14.1489
▁chugging	-14.1489
▁bleated	-14.1489
▁wonderland	-14.1489
▁chalkboard	-14.1489
▁threatening	-14.149
▁marveling	-14.1492
▁alphabet	-14.1493
▁Skeleton	-14.1496
▁Tooth	-14.1496
▁Mollie	-14.1496
▁Pa	-14.1497
▁flush	-14.1497
▁Hugo	-14.1497
▁Louie	-14.1498
rt	-14.1499
ntrigued	-14.1501
▁scraps	-14.1504
▁Olly	-14.1508
▁booming	-14.1514
▁fists	-14.1515
On	-14.1518
▁Piper	-14.152
▁urges	-14.1523
▁ding	-14.1524
▁carelessly	-14.1526
▁limp	-14.1534
▁u	-14.1537
▁snorts	-14.154
▁yielding	-14.155
▁wheeled	-14.1552
▁report	-14.1552
▁Winter	-14.1555
printed	-14.1556
Bear	-14.1558
▁surfers	-14.1563
▁Purple	-14.1571
▁crosses	-14.158
▁Pop	-14.1581
▁Cake	-14.159
▁Twist	-14.1591
▁Whe	-14.1595
▁Should	-14.1596
▁ruby	-14.1596
▁fairly	-14.16
▁Animals	-14.1604
▁pal	-14.1628
▁lately	-14.1645
▁whil	-14.1653
▁Mister	-14.1656
▁dribble	-14.1658
again	-14.167
▁Truck	-14.1671
▁minty	-14.1674
▁Sad	-14.1695
▁Heather	-14.1711
▁litter	-14.1722
▁storyteller	-14.1738
▁War	-14.174
then	-14.1746
▁skate	-14.1746
head	-14.1749
▁sundae	-14.1752
▁cabinets	-14.1765
Sh	-14.1766
talkie	-14.1793
▁battles	-14.1807
▁choke	-14.181
▁inspect	-14.1811
▁flicker	-14.1817
bang	-14.1821
▁Connie	-14.1821
▁Skelly	-14.1821
▁volume	-14.1821
▁grazing	-14.1821
▁cinnamon	-14.1821
▁ecstatic	-14.1821
▁recently	-14.1822
▁Thanksgiving	-14.1822
▁headphones	-14.1822
▁clambered	-14.1822
▁tightrope	-14.1825
▁Gilly	-14.1828
▁screeched	-14.1828
▁involved	-14.1828
▁Lacy	-14.1829
▁Lazy	-14.1829
▁knead	-14.1829
▁Gretchen	-14.1829
▁recycling	-14.183
▁rosy	-14.1831
▁Clucky	-14.1834
▁Brady	-14.1836
▁goo	-14.1837
▁Eve	-14.1838
▁cents	-14.1839
inkling	-14.1839
▁itches	-14.1839
▁sideways	-14.184
▁Seth	-14.1841
▁Bao	-14.1843
▁High	-14.1844
▁Micky	-14.1846
▁yelp	-14.1846
▁flakes	-14.1853
▁somersaults	-14.1855
▁till	-14.1856
▁tiptoes	-14.1869
crep	-14.187
tending	-14.1874
▁tagged	-14.1878
▁yelps	-14.1881
▁Jolly	-14.1888
Nobody	-14.1888
▁Work	-14.1898
▁tumble	-14.1899
op	-14.1922
▁banks	-14.1931
▁meets	-14.1943
Bella	-14.1946
▁dart	-14.1952
▁prey	-14.1954
check	-14.1956
▁outdoor	-14.1959
▁Bea	-14.1962
▁records	-14.1962
▁Peek	-14.1962
▁runners	-14.1978
▁mostly	-14.1987
▁persuade	-14.1988
om	-14.1993
ouch	-14.2004
▁experiments	-14.2004
▁looped	-14.2032
well	-14.2066
▁cords	-14.2067
ling	-14.2069
▁rash	-14.2069
▁clam	-14.2075
▁tradition	-14.2083
▁equal	-14.2086
▁elbows	-14.2094
ipping	-14.2095
▁fi	-14.2103
▁Tip	-14.2114
▁stray	-14.2131
▁towns	-14.2139
Grab	-14.2146
▁paddles	-14.2149
freeze	-14.2153
occo	-14.2164
▁Isabel	-14.2165
▁vendors	-14.2165
▁Moira	-14.2166
▁loaf	-14.2166
▁Aiden	-14.2166
▁syringe	-14.2166
▁dangling	-14.2166
▁Clarissa	-14.2166
▁Angelina	-14.2166
▁Muffy	-14.2166
▁ladies	-14.2166
▁private	-14.2166
▁opportunities	-14.2166
▁replacement	-14.2166
▁dazzling	-14.2167
▁grandbaby	-14.2167
▁ridden	-14.2167
▁whirred	-14.2167
▁remarkable	-14.2167
▁tidier	-14.2167
▁spitting	-14.2168
▁Sully	-14.2169
▁droopy	-14.217
Eww	-14.217
▁erupted	-14.2172
▁thrilling	-14.2173
▁sniffles	-14.2174
▁Lillie	-14.2175
▁comfortably	-14.2176
▁Billie	-14.2178
▁scuttl	-14.2181
▁simplest	-14.2183
Toys	-14.2187
▁Far	-14.2187
Almost	-14.219
▁Club	-14.2191
eir	-14.2192
▁Clown	-14.2192
▁beaten	-14.2194
▁Chad	-14.2195
ced	-14.2198
▁hiked	-14.22
▁crashes	-14.2212
▁Barber	-14.2221
▁deepest	-14.2222
▁survived	-14.2222
▁replies	-14.2223
ic	-14.2224
minded	-14.2224
▁bathrobes	-14.2228
▁peeling	-14.2246
▁graze	-14.2248
Magic	-14.2253
▁cigarettes	-14.2262
▁Coffee	-14.2272
▁motions	-14.2283
▁neater	-14.2283
nowing	-14.2284
Choose	-14.2286
match	-14.229
▁mash	-14.2296
iver	-14.2296
▁shuffle	-14.2304
specially	-14.2307
▁prefer	-14.2309
▁fo	-14.2315
▁Stand	-14.232
even	-14.2324
ready	-14.2333
▁riddles	-14.2342
Every	-14.2343
▁turkeys	-14.2346
boom	-14.2347
▁zigzags	-14.2358
special	-14.236
find	-14.2361
▁trumpets	-14.2363
▁birthdays	-14.2363
▁aims	-14.2382
▁pang	-14.2388
▁unzip	-14.2414
▁views	-14.2429
Miss	-14.2431
▁zippers	-14.2437
▁gulp	-14.2437
▁handkerchief	-14.2439
▁friendships	-14.2449
▁command	-14.2454
▁noodle	-14.2455
always	-14.2458
▁piglet	-14.2463
▁Ask	-14.2464
▁caves	-14.2464
▁greeting	-14.2467
▁baa	-14.2473
▁Pig	-14.2473
God	-14.2481
Mimi	-14.2484
▁Meow	-14.2487
goodbye	-14.2489
▁carts	-14.2489
▁rung	-14.2502
eeping	-14.2504
Turn	-14.2515
▁curse	-14.2518
sad	-14.2521
▁Lori	-14.2521
▁basil	-14.2523
▁China	-14.2523
▁Nikki	-14.2523
▁Gertie	-14.2523
▁glory	-14.2523
▁recital	-14.2523
▁Barbara	-14.2523
▁advantage	-14.2523
▁balcony	-14.2523
▁Brandy	-14.2523
▁moderation	-14.2523
▁cranky	-14.2523
▁sixteen	-14.2523
▁unzipped	-14.2523
▁Maia	-14.2524
▁Manny	-14.2524
▁variety	-14.2524
▁rowboat	-14.2524
▁bristles	-14.2524
▁foreshadowing	-14.2524
▁Marta	-14.2524
▁scoring	-14.2525
▁Blake	-14.2525
▁stubbornness	-14.2525
▁headband	-14.2527
Greetings	-14.2528
▁stressed	-14.2529
▁floaties	-14.2529
▁underwear	-14.2534
▁buzzes	-14.2537
▁arriving	-14.2538
hey	-14.2544
▁endless	-14.2549
oxy	-14.255
▁paramedics	-14.2554
▁Donna	-14.2556
▁summertime	-14.2557
▁outcome	-14.2563
▁snowed	-14.2563
▁Sister	-14.2565
▁sharpen	-14.2568
▁scribbles	-14.2573
earned	-14.2574
Sit	-14.2575
▁Lady	-14.2581
Life	-14.2584
▁feeder	-14.2587
▁dials	-14.2593
▁forwards	-14.2597
uacky	-14.2604
▁tiles	-14.261
▁Amazing	-14.2631
Imagine	-14.2631
▁Celery	-14.2633
Pass	-14.2646
elsey	-14.265
▁shooter	-14.2651
hoo	-14.2654
▁stalls	-14.2654
▁fighters	-14.2655
▁cash	-14.2655
▁secretly	-14.2661
▁chomp	-14.2669
▁bins	-14.2671
lung	-14.2672
▁Mars	-14.2682
▁speeds	-14.2712
▁Land	-14.2717
▁spa	-14.272
!''	-14.2741
rs	-14.2747
▁risen	-14.2753
▁compliments	-14.2756
▁coughs	-14.2757
meow	-14.2763
▁Fun	-14.277
liked	-14.278
▁forgetful	-14.2794
▁lace	-14.28
Bunny	-14.2802
▁Dream	-14.2813
rapping	-14.2814
▁Flip	-14.2819
▁sunsets	-14.2823
▁banner	-14.2829
Baby	-14.2838
▁insists	-14.2839
▁Count	-14.2872
▁Sale	-14.2884
▁torch	-14.2887
reverse	-14.289
osemary	-14.2891
▁nibbles	-14.2892
▁cacti	-14.2893
▁supper	-14.2893
▁SNAP	-14.2893
▁Hazel	-14.2893
▁Trevor	-14.2893
▁Nanny	-14.2893
▁Cassie	-14.2893
▁Goldie	-14.2893
▁therapist	-14.2894
▁muttered	-14.2894
▁Wanda	-14.2894
▁sniffling	-14.2894
▁splattered	-14.2894
▁grunted	-14.2895
▁yanked	-14.2895
▁policemen	-14.2895
▁responsibly	-14.2896
▁applied	-14.2896
▁smoothness	-14.2896
▁Mixy	-14.2896
▁flickering	-14.2897
while	-14.2898
▁squawking	-14.2898
▁pranced	-14.2899
▁wilted	-14.29
▁Lara	-14.29
▁Louisa	-14.2901
▁Gizmo	-14.2902
▁Lydia	-14.2902
▁zone	-14.2904
▁pluck	-14.2906
tree	-14.2906
▁downstream	-14.2906
▁measurements	-14.2911
▁Bessy	-14.2912
▁Biggy	-14.2913
▁Pepe	-14.2914
▁juggled	-14.2914
▁squeaking	-14.2914
pon	-14.2915
▁Otter	-14.2917
▁mustard	-14.292
▁Yet	-14.2924
▁strutt	-14.2928
Ahh	-14.293
▁lolly	-14.2933
▁Swimming	-14.2934
▁cactuses	-14.2935
▁sentences	-14.2936
▁blossoms	-14.294
decided	-14.2946
▁fool	-14.2949
Sun	-14.2952
▁stalk	-14.2952
▁collections	-14.2967
▁patients	-14.2977
▁hideaway	-14.2987
▁jeweler	-14.2991
treating	-14.2999
▁overnight	-14.3001
▁runway	-14.3004
Cheese	-14.3014
▁react	-14.3015
▁trained	-14.3019
Park	-14.3019
▁dumps	-14.3026
▁driven	-14.3028
▁sinks	-14.3036
▁judged	-14.3038
Ella	-14.3044
▁caps	-14.3044
▁boop	-14.3048
Play	-14.3057
▁Word	-14.3059
▁spout	-14.3061
wing	-14.3065
▁fighter	-14.3065
excited	-14.3069
▁recommendations	-14.3079
▁surge	-14.3098
▁ladle	-14.3114
rays	-14.3115
till	-14.312
aved	-14.312
▁wailed	-14.3144
mommy	-14.3144
Toby	-14.3145
▁handy	-14.3149
▁meanings	-14.3158
▁teaspoons	-14.3176
▁containers	-14.3182
unch	-14.3188
▁princes	-14.3191
▁Home	-14.3203
▁valu	-14.3207
▁channel	-14.3209
▁bo	-14.3213
▁option	-14.3215
▁villain	-14.3219
maybe	-14.323
▁Jesse	-14.3247
▁tackle	-14.3266
▁produce	-14.3273
uriosity	-14.3275
▁Lacey	-14.3278
▁Cotton	-14.3278
▁Jemima	-14.3278
▁Stuart	-14.3278
▁Snappy	-14.3278
▁merrily	-14.3278
▁similar	-14.3278
▁thirteen	-14.3278
▁luckier	-14.3278
▁unharmed	-14.3278
▁disbelief	-14.3278
▁luxurious	-14.3278
▁blacksmith	-14.3278
▁frantically	-14.3278
▁gleefully	-14.3278
▁Georgie	-14.3278
▁terror	-14.3278
ering	-14.3279
▁washcloth	-14.3279
▁crackling	-14.328
▁Trouble	-14.328
▁twitching	-14.328
▁calmness	-14.3281
▁thoughtfulness	-14.3281
▁persisted	-14.3281
▁resolved	-14.3282
▁squint	-14.3283
▁jiggled	-14.3283
▁wetness	-14.3283
▁Jet	-14.3284
▁paintbrushes	-14.3286
▁Ginny	-14.3287
▁Gently	-14.3287
▁protective	-14.3288
▁Grandmother	-14.3288
▁puffing	-14.3289
▁visible	-14.329
▁coiled	-14.3291
▁quitting	-14.3292
▁Wings	-14.3292
Found	-14.3294
▁reins	-14.3297
▁spotless	-14.3298
▁Sunflower	-14.3298
▁emotions	-14.3301
▁Iggy	-14.3301
▁ABCs	-14.3306
▁grind	-14.3308
▁leaks	-14.331
▁farmhouse	-14.3311
▁conflicts	-14.3311
▁Horse	-14.3313
▁harshly	-14.3314
its	-14.3319
oll	-14.3321
water	-14.3324
▁assured	-14.3325
▁Golf	-14.3327
▁snooze	-14.3329
▁flooding	-14.3331
▁rainwater	-14.3336
▁Pigeon	-14.3337
▁loser	-14.3343
▁imitate	-14.3346
▁Cream	-14.3357
▁Wild	-14.3369
▁dipp	-14.3372
mine	-14.3375
gh	-14.3376
▁appearing	-14.3381
▁Whee	-14.3382
▁poisoned	-14.3386
▁habits	-14.339
▁shh	-14.3406
Pick	-14.3417
▁parrots	-14.3425
Soup	-14.343
▁birdies	-14.3445
▁Butterfly	-14.3449
scared	-14.3451
ddled	-14.3457
ew	-14.3461
▁notices	-14.3462
▁gree	-14.3466
▁artists	-14.3467
▁gardens	-14.3474
▁reader	-14.348
▁roofs	-14.3481
▁struggles	-14.3482
▁swingset	-14.3498
▁rattl	-14.351
ha	-14.3519
▁includes	-14.352
▁ski	-14.3529
eyed	-14.3531
▁chuckle	-14.3532
▁greed	-14.3537
Suddenly	-14.3547
▁lamps	-14.3566
▁jack	-14.3572
▁Mara	-14.3587
anger	-14.3592
▁haystack	-14.3594
▁desire	-14.3599
▁exercised	-14.36
▁motorbike	-14.3609
▁ponytail	-14.3609
▁interests	-14.361
ive	-14.3632
▁Swan	-14.3636
▁rhythms	-14.3642
▁trim	-14.3656
▁doubt	-14.3657
layed	-14.3662
▁din	-14.3669
▁moist	-14.367
▁Bibi	-14.3676
▁colony	-14.3676
▁Drew	-14.3677
arriage	-14.3677
▁baaed	-14.3677
Warning	-14.3678
▁Sonia	-14.3678
▁Morris	-14.3678
▁Doodle	-14.3678
▁Franny	-14.3678
▁privacy	-14.3678
▁sheriff	-14.3678
▁sensible	-14.3678
▁Jeffrey	-14.3678
▁fourteen	-14.3678
▁Nearby	-14.3678
▁spectacular	-14.3678
▁horrified	-14.3678
▁Samuel	-14.3678
▁surgery	-14.3678
▁flagpole	-14.3678
▁haunted	-14.3679
▁sidelines	-14.3679
▁cloak	-14.3679
▁guiding	-14.3679
▁reddest	-14.368
▁firewood	-14.3681
▁pausing	-14.3681
▁squealing	-14.3683
▁ballet	-14.3683
▁flickered	-14.3684
▁Gracy	-14.3684
▁divided	-14.3684
▁Daughter	-14.3688
▁sizzle	-14.3688
▁brightness	-14.3688
▁Co	-14.3688
▁plums	-14.3688
▁matchbox	-14.369
▁snored	-14.3691
▁Ivy	-14.3691
adish	-14.3695
▁vows	-14.3697
▁blind	-14.3698
▁mooing	-14.37
▁Driver	-14.37
▁crafted	-14.3701
▁Shade	-14.3701
▁losers	-14.3705
▁Bloo	-14.3706
▁Donny	-14.3707
▁products	-14.371
▁forces	-14.371
▁muster	-14.3715
▁Sugar	-14.372
▁Wh	-14.3722
▁streak	-14.3725
▁shaving	-14.3726
▁delicately	-14.3732
ous	-14.3736
▁Black	-14.3741
▁Hood	-14.3746
▁plump	-14.3755
▁Bon	-14.3756
▁sighing	-14.3756
▁displays	-14.3757
took	-14.3765
▁licenses	-14.377
▁richest	-14.3775
▁endings	-14.3776
▁Sea	-14.3782
▁Sheila	-14.3789
▁Sari	-14.3795
▁bolts	-14.3802
toys	-14.3803
▁drained	-14.3806
Sweet	-14.3806
▁croaks	-14.3808
▁yay	-14.3818
▁wavy	-14.3822
Pink	-14.3828
▁scrapes	-14.383
▁hamburgers	-14.3831
▁slaps	-14.3844
obot	-14.3853
▁owls	-14.3854
▁ro	-14.386
▁Jin	-14.3884
▁markings	-14.3906
onny	-14.3907
iko	-14.3914
right	-14.3916
▁zap	-14.3933
Paul	-14.394
▁bless	-14.3943
▁squashed	-14.3944
▁Lo	-14.3948
▁grounded	-14.3958
your	-14.3964
▁Comet	-14.3967
▁Butter	-14.3974
gaining	-14.3976
▁breathes	-14.3999
▁collapse	-14.4
Bobo	-14.4001
▁blend	-14.4008
▁eyeshadow	-14.401
▁Aren	-14.4017
▁skateboard	-14.4017
▁everytime	-14.4021
▁Gill	-14.4022
ebra	-14.4023
▁crisp	-14.4023
▁combination	-14.4026
▁groan	-14.4051
▁meetings	-14.4059
▁birdy	-14.4063
alking	-14.4064
▁hoot	-14.4064
▁Marc	-14.4065
work	-14.4066
▁Cookie	-14.4073
▁House	-14.4087
▁disc	-14.4087
▁hesitate	-14.4088
Thes	-14.4088
▁witness	-14.4089
▁eerie	-14.4093
▁tangy	-14.4093
ichie	-14.4094
▁magpie	-14.4094
▁Harvey	-14.4094
▁massive	-14.4094
▁Michelle	-14.4095
▁dizziness	-14.4095
▁grumpiness	-14.4095
▁personality	-14.4095
▁speckled	-14.4095
▁sheepishly	-14.4095
▁diligently	-14.4095
▁hilarious	-14.4095
▁typing	-14.4095
▁pounded	-14.4096
▁blender	-14.4096
▁Slimy	-14.4096
▁shyness	-14.4096
▁tusks	-14.4096
▁eagerness	-14.4096
▁Joyce	-14.41
▁clucking	-14.41
▁Honesty	-14.4101
▁Burt	-14.4103
True	-14.4104
Snowy	-14.4104
▁Janet	-14.4104
▁Junior	-14.4104
▁Anchor	-14.4104
▁Gaby	-14.4104
▁Margaret	-14.4104
▁Emmie	-14.4106
▁billboards	-14.4108
▁features	-14.4108
▁stumbling	-14.411
▁rattled	-14.411
▁slippers	-14.4114
▁giddy	-14.4114
▁Caterpillar	-14.4115
▁Fast	-14.4119
ter	-14.412
▁dearly	-14.4121
▁clicking	-14.4125
▁Square	-14.4126
▁Blocks	-14.4129
▁fortune	-14.413
▁pondered	-14.4132
▁splashy	-14.4133
▁cartwheels	-14.4134
▁bandaid	-14.4138
▁soothe	-14.4139
▁Bell	-14.4153
▁leashes	-14.4153
outside	-14.4154
▁cooing	-14.416
▁engineer	-14.4162
▁Hippo	-14.4164
▁School	-14.4164
▁frie	-14.4166
▁stations	-14.4168
▁Nei	-14.4174
▁Sleepy	-14.4175
▁buyer	-14.4176
▁within	-14.4177
▁sobs	-14.4178
thought	-14.4178
▁Sharks	-14.4193
grandma	-14.4194
give	-14.42
Lion	-14.4205
▁swarm	-14.4207
▁poof	-14.421
▁ducked	-14.4219
▁Soap	-14.4234
Show	-14.4236
ning	-14.4238
about	-14.4252
▁tougher	-14.4254
▁grilled	-14.426
▁plank	-14.4271
elderly	-14.4275
▁cauliflowers	-14.428
▁potions	-14.4282
▁cob	-14.4287
Ellie	-14.4308
▁souvenirs	-14.4321
rest	-14.4326
▁chimneys	-14.4327
sure	-14.4328
door	-14.4332
▁preferr	-14.435
▁clasp	-14.4361
▁ga	-14.4366
▁storing	-14.4387
▁leafy	-14.4396
Find	-14.4412
▁swished	-14.4423
▁salads	-14.4424
▁Cocoa	-14.4425
eal	-14.4432
▁jealousy	-14.4437
▁pitched	-14.4439
▁explosion	-14.4452
▁drummer	-14.4453
▁snort	-14.4455
ile	-14.4456
▁Marble	-14.4457
▁parcel	-14.4459
▁Wiggle	-14.4464
▁Of	-14.4466
▁germ	-14.4467
lie	-14.4472
ING	-14.4482
▁steaks	-14.4504
▁bullet	-14.4508
▁describe	-14.4518
eliable	-14.4526
▁exception	-14.4527
▁Gavin	-14.4527
▁Curly	-14.4528
▁uneasy	-14.4528
▁numb	-14.4528
▁arrival	-14.4528
▁boldly	-14.4528
▁kettle	-14.4528
▁summon	-14.4529
ichard	-14.4529
kipping	-14.4529
▁majesty	-14.4529
▁teddies	-14.4529
▁toppled	-14.4529
▁grouchy	-14.4529
▁English	-14.4529
▁Shannon	-14.4529
▁harbour	-14.4529
▁gigantic	-14.4529
▁boundaries	-14.4529
▁caretaker	-14.4529
▁salesperson	-14.4529
▁inquisitive	-14.4529
▁directly	-14.4529
▁snarling	-14.453
▁peddled	-14.453
▁glossy	-14.4531
▁pathway	-14.4531
▁fearless	-14.4534
▁mopping	-14.4534
Jogging	-14.4535
Po	-14.4535
▁Hana	-14.4536
▁Manuel	-14.4539
▁Misty	-14.4539
▁ripest	-14.454
▁crop	-14.454
▁Cop	-14.454
▁produced	-14.454
▁spinny	-14.4541
Cheers	-14.4545
▁Ant	-14.4545
▁cultures	-14.4552
▁Sprinkles	-14.4556
▁Dolphins	-14.4556
▁mac	-14.456
▁fossils	-14.4564
▁huddle	-14.4582
▁twitch	-14.4583
Mail	-14.4583
▁Happiness	-14.4586
▁flex	-14.4588
▁duckies	-14.4588
▁Amie	-14.4591
▁clang	-14.4594
didn	-14.4601
▁Iris	-14.4603
▁lighthouse	-14.4608
▁former	-14.4621
hen	-14.4625
arla	-14.4633
▁darkest	-14.4635
boos	-14.4639
▁wildly	-14.4645
▁crazie	-14.4649
nice	-14.4661
▁lakes	-14.4669
Fun	-14.4672
▁gloom	-14.4676
Love	-14.4679
Caw	-14.4679
▁creep	-14.469
▁plac	-14.4704
▁Jump	-14.4708
▁chalks	-14.4719
▁donut	-14.472
Chocolate	-14.4722
NO	-14.4727
▁scrambl	-14.473
▁carpets	-14.4735
▁grade	-14.4739
▁Jenn	-14.4758
▁stores	-14.4761
everse	-14.4765
ook	-14.4767
▁Alexis	-14.4778
▁Ca	-14.4781
arl	-14.4799
ny	-14.48
▁clink	-14.4802
▁cooks	-14.4821
▁Mee	-14.4821
▁squirm	-14.4827
▁ch	-14.4828
Wine	-14.483
▁bled	-14.4852
▁razors	-14.486
Grace	-14.4886
▁fa	-14.4887
cross	-14.4902
ways	-14.4905
Before	-14.4906
ummy	-14.4907
▁granddad	-14.491
▁rectangle	-14.4915
▁Dark	-14.4916
▁thousand	-14.4918
Buddy	-14.4918
▁Statue	-14.4924
▁chore	-14.4926
test	-14.4943
▁carrier	-14.4945
▁villager	-14.4945
▁recogniz	-14.4953
▁Fran	-14.4971
▁doze	-14.4973
▁concern	-14.4978
▁Adriana	-14.4982
▁Pierre	-14.4982
▁Scruffy	-14.4982
▁cockpit	-14.4982
▁glorious	-14.4982
▁spatula	-14.4982
▁internet	-14.4982
▁ticklish	-14.4982
▁funnier	-14.4982
▁tournament	-14.4982
▁Corey	-14.4982
▁shiniest	-14.4982
▁Flame	-14.4983
▁payment	-14.4984
▁amusement	-14.4984
▁lawnmower	-14.4984
▁unplugged	-14.4984
▁mailmen	-14.4984
▁fairytale	-14.4984
▁heartbeat	-14.4984
▁bubblegum	-14.4984
▁constantly	-14.4984
▁Marianna	-14.4986
▁broomstick	-14.4986
▁Pin	-14.4986
▁longingly	-14.4986
▁Tuffy	-14.4987
▁entirely	-14.4995
▁Greenie	-14.4995
▁Davy	-14.4996
na	-14.4997
▁choked	-14.5
▁Aya	-14.5005
▁Sissy	-14.5006
▁va	-14.5006
▁teases	-14.5009
▁ashore	-14.5012
▁Wool	-14.502
▁cleverest	-14.5023
od	-14.5024
▁Minty	-14.5026
▁Ahead	-14.5041
lapped	-14.5043
▁Five	-14.5048
▁mailboxes	-14.5051
▁Police	-14.5053
▁armour	-14.5058
▁beaches	-14.5063
▁critters	-14.5078
▁unsafe	-14.5083
▁mow	-14.5088
▁surfed	-14.5091
Andy	-14.5091
green	-14.5091
▁jogs	-14.5095
anna	-14.5095
der	-14.5097
▁Learn	-14.5115
▁swell	-14.5122
tanding	-14.5123
▁dandelions	-14.5124
▁detectives	-14.5127
▁Sack	-14.5129
▁bead	-14.513
lapping	-14.5137
▁Disappoint	-14.5151
▁meanie	-14.5152
behaved	-14.5153
▁ruins	-14.5164
▁speakers	-14.5166
onths	-14.5166
▁form	-14.5171
▁stubb	-14.5188
▁questioning	-14.5192
pitched	-14.5192
▁Cauliflower	-14.5193
Bobby	-14.5201
▁laps	-14.5237
▁posed	-14.5254
▁nailed	-14.5266
ots	-14.5279
Owl	-14.5281
▁March	-14.5284
At	-14.5293
▁ramps	-14.5305
woo	-14.5306
Clean	-14.5308
ys	-14.5323
wn	-14.5326
Bees	-14.5332
Mike	-14.534
▁bared	-14.5344
▁threats	-14.5369
rough	-14.5372
▁Hard	-14.5376
▁fragrance	-14.5387
▁sorrow	-14.5387
▁prisoner	-14.539
▁France	-14.5397
▁Ball	-14.541
Wheeee	-14.5416
▁attend	-14.5424
▁tilt	-14.5431
▁sugary	-14.5435
immy	-14.5442
▁Juan	-14.5457
eluctantly	-14.5457
▁Arthur	-14.5458
▁Harper	-14.5458
▁Majesty	-14.5458
▁Miraculously	-14.5458
▁confetti	-14.5458
▁fabulous	-14.5458
▁guacamole	-14.5458
▁slingshot	-14.5458
▁trustworthy	-14.5458
▁virus	-14.5458
▁porcupine	-14.5458
▁Chippy	-14.5458
▁Hilda	-14.5458
▁renewed	-14.5458
▁Melina	-14.5458
▁Alec	-14.5458
niversity	-14.5459
▁hobbies	-14.5459
▁waddling	-14.5459
▁unwell	-14.5459
▁bookshelves	-14.5459
▁erasing	-14.546
▁sulked	-14.546
▁deliveries	-14.546
▁pigtails	-14.5461
▁scowling	-14.5461
▁breathtaking	-14.5461
▁rudeness	-14.5462
▁uneven	-14.5462
▁nerves	-14.5462
Oxygen	-14.5462
▁pressure	-14.5463
▁apologizing	-14.5463
▁distress	-14.5464
▁chattering	-14.5464
▁smashing	-14.5465
▁Trucky	-14.5465
▁reeds	-14.5465
▁Otto	-14.5465
▁citizens	-14.5467
▁basics	-14.5468
▁insistent	-14.5469
Hmmm	-14.5469
▁hesitantly	-14.5469
ra	-14.5469
▁Sydney	-14.5471
▁Chester	-14.5471
▁lavender	-14.5471
▁death	-14.5472
▁Jonas	-14.5472
▁lowest	-14.5473
▁madder	-14.5474
▁tingly	-14.5474
light	-14.5475
▁ditch	-14.5477
▁attacking	-14.5479
▁Margo	-14.548
▁sprouted	-14.548
▁approaching	-14.5483
▁Pickles	-14.5483
▁handling	-14.5486
▁Honest	-14.5488
▁Ear	-14.5489
fly	-14.5489
lly	-14.5489
▁Move	-14.5492
alue	-14.5493
▁parades	-14.5495
▁Strong	-14.5497
▁Whale	-14.5499
▁Learning	-14.5511
▁Speed	-14.5518
rd	-14.5518
Poppy	-14.5518
▁fizz	-14.5521
ye	-14.5525
▁coo	-14.5527
▁Paint	-14.5533
oice	-14.5535
▁stitching	-14.5535
▁Parrot	-14.5544
▁Skye	-14.5545
▁filth	-14.5546
▁tha	-14.5556
▁Lemons	-14.5558
▁Jumping	-14.5563
Luna	-14.5568
▁Number	-14.5576
allowing	-14.5593
▁gardeners	-14.5593
stand	-14.5595
▁Scissor	-14.5612
▁Squeeze	-14.5615
▁Crazy	-14.5621
linked	-14.5621
▁Patience	-14.5621
Six	-14.5629
mall	-14.5643
▁railing	-14.5655
▁frost	-14.5661
▁pi	-14.5663
Woo	-14.5672
▁gaps	-14.5674
bear	-14.5681
ma	-14.5683
serted	-14.5686
Bravo	-14.5688
▁Lea	-14.569
Promise	-14.5697
woof	-14.5707
▁dam	-14.5708
▁weekends	-14.5709
▁rushes	-14.5737
▁Napp	-14.5737
▁Four	-14.5742
▁n	-14.5747
▁spoilt	-14.5747
eating	-14.5753
hing	-14.5757
gave	-14.5767
ola	-14.5776
▁Doll	-14.5787
▁posted	-14.5791
▁someplace	-14.5791
▁sprayer	-14.5791
▁trades	-14.5798
inner	-14.58
fast	-14.5801
▁al	-14.5815
▁dra	-14.5822
▁unroll	-14.5827
Lola	-14.5831
▁straighten	-14.5856
▁manner	-14.5859
▁buds	-14.5865
▁volunteer	-14.5867
▁scribble	-14.5879
▁perspective	-14.588
told	-14.5881
▁splinter	-14.5882
▁announcement	-14.5884
▁icicle	-14.5889
hold	-14.59
▁Crocodile	-14.5902
lass	-14.5916
▁plea	-14.593
mped	-14.5931
▁Stu	-14.5941
▁weave	-14.5943
▁celebrations	-14.5945
▁frighten	-14.5953
▁dismay	-14.5953
▁subtract	-14.5955
played	-14.5957
▁Cheryl	-14.5958
▁Dennis	-14.5958
▁Priscilla	-14.5958
▁Selma	-14.5958
▁carpenter	-14.5958
▁clinic	-14.5958
▁garlic	-14.5958
▁melodies	-14.5958
▁preferences	-14.5958
▁pyjamas	-14.5958
▁raspberry	-14.5958
▁unforgettable	-14.5958
▁Hailey	-14.5958
▁Mateo	-14.5958
▁Delighted	-14.5958
▁meaningful	-14.5958
▁betrayed	-14.5958
▁bustling	-14.5958
▁pitchfork	-14.5958
▁tiniest	-14.5959
▁relaxation	-14.5959
▁shrugging	-14.5959
▁director	-14.5959
▁untidy	-14.5959
▁Jada	-14.596
▁inspiration	-14.596
▁shrieked	-14.596
▁Easter	-14.596
▁obedience	-14.596
▁illness	-14.5961
▁limping	-14.5961
▁barnyard	-14.5962
▁flesh	-14.5963
▁Peach	-14.5963
▁adopted	-14.5966
▁shoebox	-14.5966
▁postbox	-14.5966
▁Bones	-14.5967
▁incident	-14.5968
▁official	-14.5969
▁campers	-14.5969
▁steadily	-14.5971
▁Diego	-14.5971
▁Phoebe	-14.5971
▁dozing	-14.5972
▁cement	-14.5972
know	-14.5972
▁Monday	-14.5972
▁Windy	-14.5973
James	-14.5974
▁Croco	-14.5974
▁spiral	-14.5975
▁roles	-14.5977
▁creaky	-14.5977
▁devour	-14.5977
▁exist	-14.5978
▁Allowed	-14.5978
▁Jaden	-14.5982
▁system	-14.5984
Dead	-14.5988
▁errands	-14.5993
▁Potato	-14.5995
▁fishies	-14.5999
▁mattresses	-14.6005
bed	-14.6005
▁Sheena	-14.6015
▁Lizard	-14.6015
▁Coal	-14.6022
▁angle	-14.6024
▁lad	-14.6035
Marry	-14.6037
▁Pinch	-14.6044
▁bumper	-14.6048
▁racecar	-14.6049
▁poorly	-14.6063
ache	-14.6071
▁Wiggles	-14.6073
▁biking	-14.6075
Bathing	-14.6078
▁Butterflies	-14.608
Snap	-14.609
▁bendy	-14.61
▁cameras	-14.6101
▁begins	-14.6102
much	-14.6103
▁swatte	-14.6103
▁Gold	-14.6107
▁locking	-14.6112
Big	-14.6114
▁mopped	-14.6132
▁stumbles	-14.6133
▁cure	-14.6134
▁weaving	-14.6136
▁compar	-14.6136
▁recite	-14.6147
▁Paws	-14.6172
▁Spiders	-14.618
▁Hot	-14.6181
▁sho	-14.6183
placing	-14.6186
read	-14.6189
▁Chew	-14.6196
Mister	-14.6212
Anything	-14.6213
▁drips	-14.6217
▁Dolls	-14.622
▁ne	-14.6226
▁scenes	-14.6229
blue	-14.6231
▁camels	-14.6241
ame	-14.6252
Lying	-14.6256
▁Giraffe	-14.6265
Momma	-14.6274
▁Hour	-14.6274
ro	-14.628
Boom	-14.6283
▁heavens	-14.6284
▁grasses	-14.6295
▁NO	-14.6299
▁clicks	-14.6304
▁stro	-14.6308
ocks	-14.6308
u	-14.6313
ier	-14.6314
▁pinchy	-14.632
ating	-14.6323
▁trot	-14.6326
▁ferr	-14.6326
set	-14.6346
▁canes	-14.6353
▁Congratulations	-14.6373
▁spine	-14.6379
lid	-14.638
▁daydream	-14.6382
▁client	-14.6393
▁fe	-14.6393
zip	-14.6402
knew	-14.6403
▁earthworm	-14.6407
▁detail	-14.6413
▁sibling	-14.6414
▁fellow	-14.6415
▁effect	-14.6416
▁hind	-14.6418
▁afterward	-14.6418
toy	-14.6422
▁coast	-14.6426
▁playmate	-14.6426
Brownie	-14.6437
piece	-14.6441
▁earring	-14.6442
▁stinger	-14.6443
▁powders	-14.6444
▁Elliot	-14.6445
▁doghouse	-14.6456
Four	-14.6459
ka	-14.6461
▁shimmer	-14.6468
▁Acorn	-14.6471
▁reassure	-14.6474
▁practise	-14.6475
▁unfold	-14.6477
▁Grump	-14.6477
▁bun	-14.6479
Aww	-14.6484
lot	-14.6484
ASH	-14.6485
▁Elena	-14.6485
▁Jasper	-14.6485
▁Shirley	-14.6485
▁Sylvester	-14.6485
▁Tricia	-14.6485
▁briefcase	-14.6485
▁eternity	-14.6485
▁fascination	-14.6485
▁obvious	-14.6485
▁public	-14.6485
▁raspberries	-14.6485
▁resources	-14.6485
▁underestimate	-14.6485
▁Giggle	-14.6485
▁transport	-14.6485
▁strumming	-14.6485
▁lazily	-14.6485
▁Isabella	-14.6485
▁observant	-14.6485
▁convincing	-14.6485
▁judgement	-14.6485
responsibilities	-14.6485
▁Swimmy	-14.6485
▁mummies	-14.6485
▁pedalling	-14.6485
▁satisfying	-14.6485
▁Ayla	-14.6486
▁barbershop	-14.6486
▁reassuringly	-14.6486
▁limeade	-14.6486
▁lightening	-14.6486
▁junkyard	-14.6487
▁persevered	-14.6488
▁huffed	-14.6489
▁blossomed	-14.6489
▁hooted	-14.6489
▁demonstrated	-14.649
▁Dash	-14.6492
▁sharpened	-14.6492
▁sneezy	-14.6494
▁cannon	-14.6494
▁swordfish	-14.6495
▁farmyard	-14.6496
▁Judge	-14.6498
▁Miguel	-14.6498
▁Teresa	-14.6498
▁ferry	-14.65
▁policy	-14.6502
▁brats	-14.6505
▁aiming	-14.6505
▁Lil	-14.6507
▁lambs	-14.6507
▁fainted	-14.6508
▁spinach	-14.6509
▁Loop	-14.6509
▁Dependable	-14.6512
Yep	-14.6513
▁Ti	-14.6513
▁painters	-14.6514
▁grunts	-14.6514
▁suitable	-14.6514
▁cowgirls	-14.6516
▁sprinkler	-14.6519
▁Step	-14.6522
▁swift	-14.6525
▁Gorilla	-14.6525
▁Bryan	-14.6526
▁Blinky	-14.6531
▁overalls	-14.6533
▁tadpoles	-14.6534
▁planks	-14.6535
ining	-14.6537
▁upsetting	-14.6538
▁vain	-14.6539
▁shove	-14.654
▁Worms	-14.6545
▁vanishing	-14.6545
▁Worry	-14.6547
▁leftover	-14.6548
leaf	-14.655
▁leftovers	-14.6552
dad	-14.6555
▁Deer	-14.6557
▁Fireworks	-14.6559
▁Shrimp	-14.656
▁brilliantly	-14.6565
▁fewer	-14.6567
ally	-14.6576
▁Bananas	-14.6581
▁pathways	-14.6585
ove	-14.6595
▁Original	-14.6597
▁pinecones	-14.6597
▁Ms	-14.6599
▁daydreaming	-14.66
▁honestly	-14.6604
▁Sport	-14.6606
vels	-14.6614
nives	-14.6619
▁mend	-14.6627
ub	-14.6627
▁chant	-14.6633
hed	-14.6633
eel	-14.6634
▁icecream	-14.6635
▁Cheap	-14.6637
pinning	-14.6638
▁nighttime	-14.6639
Spray	-14.664
wed	-14.6646
worm	-14.6654
▁looping	-14.6658
Teacher	-14.6659
▁mirrors	-14.6681
▁giants	-14.6693
▁dying	-14.6693
moving	-14.6694
Jazz	-14.6697
ened	-14.6698
Mind	-14.6699
Doggy	-14.6705
Water	-14.6712
▁thundering	-14.6716
▁Match	-14.6718
▁provides	-14.6728
▁Wonder	-14.6734
▁steamed	-14.6741
Splash	-14.6741
▁skulls	-14.6749
▁cleanest	-14.6754
lga	-14.6762
through	-14.6774
▁moose	-14.6775
Share	-14.6788
▁Witch	-14.6791
▁diet	-14.6793
fully	-14.6807
▁cheeky	-14.681
Mandy	-14.6817
▁rent	-14.682
Oink	-14.6827
eaches	-14.6845
Ducky	-14.6858
▁bands	-14.6861
ooh	-14.688
OA	-14.6885
▁ravens	-14.6895
shiny	-14.6901
iness	-14.6901
unning	-14.6905
ten	-14.6905
▁cork	-14.691
▁maths	-14.6917
▁revv	-14.6923
▁sparked	-14.6924
lping	-14.6936
▁loss	-14.6945
▁whimper	-14.6947
▁tiptoe	-14.6948
▁program	-14.6955
▁propeller	-14.6956
Joey	-14.6957
Polly	-14.6957
Whatever	-14.6959
▁ripple	-14.6961
▁blossom	-14.6963
▁comment	-14.6965
alfway	-14.6969
▁toasty	-14.6972
eddy	-14.698
▁sunburn	-14.6986
▁session	-14.6989
▁neighs	-14.6989
▁Willa	-14.6998
oth	-14.7
ak	-14.7024
▁Emmi	-14.7028
▁shares	-14.703
▁involve	-14.7039
▁triumphant	-14.7039
▁Phillip	-14.704
▁anniversary	-14.704
▁aquarium	-14.704
▁centimeters	-14.704
▁handiwork	-14.704
▁negative	-14.704
▁revenge	-14.704
▁Cici	-14.704
▁Flynn	-14.704
Woah	-14.704
▁Craig	-14.704
▁cooperative	-14.704
Enough	-14.704
▁Elmo	-14.704
▁laziness	-14.704
▁Blythe	-14.704
▁silliest	-14.704
▁Baker	-14.704
▁Harold	-14.704
▁ringmaster	-14.704
▁Boris	-14.704
▁Lauren	-14.704
▁hungrily	-14.704
▁Spud	-14.704
▁racoon	-14.7041
▁Tillie	-14.7041
▁unhealthy	-14.7041
▁Biff	-14.7041
▁grumpier	-14.7041
▁Light	-14.7041
▁tacos	-14.7041
▁eighteen	-14.7041
▁savannah	-14.7041
▁choking	-14.7041
▁Gordon	-14.7041
▁Maggy	-14.7041
▁Lana	-14.7042
▁marvelled	-14.7042
▁Carlos	-14.7042
▁speech	-14.7042
▁Gabe	-14.7043
▁regretting	-14.7043
▁whimpering	-14.7043
▁beekeeper	-14.7044
▁pleading	-14.7044
▁chilli	-14.7044
▁hairstyle	-14.7044
▁Aria	-14.7044
▁recognised	-14.7044
▁Hairy	-14.7044
▁arranging	-14.7045
▁portal	-14.7046
iya	-14.7048
▁hotdog	-14.7048
▁smudged	-14.7049
▁fizzy	-14.705
▁humbly	-14.7051
▁rainstorm	-14.7051
▁Macy	-14.7052
▁Fizz	-14.7053
▁Norman	-14.7054
▁fairness	-14.7054
▁harvested	-14.7055
▁Laser	-14.7056
▁Marco	-14.7057
▁Porty	-14.7057
Throw	-14.7058
▁Piece	-14.7059
▁lioness	-14.7059
▁Story	-14.7061
▁antennas	-14.7061
▁crumbled	-14.7063
▁appointment	-14.7066
▁badges	-14.7068
▁Sprite	-14.7068
care	-14.7072
▁relationships	-14.7073
▁watchful	-14.7075
▁Twin	-14.7078
▁pauses	-14.7078
ble	-14.7082
▁Ada	-14.7084
shed	-14.7085
▁Painting	-14.7087
ns	-14.7088
▁Triangle	-14.7088
▁crunched	-14.7088
inside	-14.7089
▁Chicken	-14.7098
▁dozen	-14.7102
▁Paper	-14.7104
▁orderly	-14.7104
▁elsewhere	-14.711
▁Popcorn	-14.7113
▁Alligator	-14.7118
shirts	-14.7122
▁adventuring	-14.7123
▁shivers	-14.7124
▁obeying	-14.7128
▁Jellyfish	-14.7128
▁villains	-14.7129
aste	-14.7129
▁weakly	-14.7139
▁seaside	-14.7139
▁commands	-14.7144
Ollie	-14.716
eith	-14.7164
▁winds	-14.7165
▁Jaya	-14.7165
▁bellowed	-14.7171
tweet	-14.7172
▁reindeers	-14.7173
elf	-14.7177
▁grilling	-14.718
pretty	-14.7186
ents	-14.7194
After	-14.7195
▁festivals	-14.7199
▁ticked	-14.72
ard	-14.7201
▁reasons	-14.7203
hair	-14.7206
▁wading	-14.7207
hot	-14.7209
kind	-14.7214
ardly	-14.7224
tted	-14.7225
Lucky	-14.7229
Pay	-14.723
oss	-14.7234
tried	-14.7239
far	-14.7243
Ho	-14.7254
sometimes	-14.7262
▁Dodo	-14.7276
▁History	-14.7278
▁reminders	-14.7286
▁Toot	-14.7286
▁pla	-14.729
Flour	-14.7301
▁pranks	-14.7301
▁shoved	-14.7302
▁Yield	-14.7305
Honk	-14.7314
March	-14.7322
Mix	-14.7328
Pretty	-14.733
▁fired	-14.7338
▁agreeing	-14.7342
li	-14.7347
Spicy	-14.735
▁spaceships	-14.7357
Chirp	-14.7358
Yield	-14.7358
Neigh	-14.7362
▁Wish	-14.7369
Poison	-14.7369
▁treating	-14.7373
▁ray	-14.7378
▁pickle	-14.7386
▁Someday	-14.7392
listen	-14.7405
ground	-14.7405
▁cheery	-14.7413
ippee	-14.7427
▁greener	-14.7432
?,"	-14.7437
hugged	-14.744
couldn	-14.7451
▁paste	-14.7453
bove	-14.7454
learned	-14.7467
ants	-14.7472
▁difficulty	-14.7474
until	-14.7478
▁ti	-14.7479
▁Jana	-14.751
George	-14.7518
Over	-14.7535
uit	-14.7536
?!	-14.7537
▁huff	-14.754
▁bal	-14.754
▁jersey	-14.7543
▁bandana	-14.7544
▁Friday	-14.7544
"!	-14.7546
▁buys	-14.755
▁grave	-14.7552
▁marshmallow	-14.7559
▁tulip	-14.7561
▁sentence	-14.7561
Sophie	-14.7564
▁Feather	-14.7566
trapped	-14.7566
▁Circle	-14.757
Oysters	-14.7579
high	-14.758
▁belief	-14.7581
ag	-14.7591
▁quarrels	-14.7598
▁pr	-14.7598
Millie	-14.7601
▁limit	-14.7612
▁Eli	-14.7615
▁fulfill	-14.7621
▁Clear	-14.7622
▁encounter	-14.7624
▁Granddad	-14.7627
Gotcha	-14.7628
▁Foreshadowing	-14.7628
▁fancier	-14.7628
▁hydrated	-14.7628
▁intricate	-14.7628
▁origami	-14.7628
▁phrase	-14.7628
▁quartz	-14.7628
▁transformation	-14.7628
▁Arnold	-14.7628
▁Astrid	-14.7628
▁Slinky	-14.7628
▁nineteen	-14.7628
▁referee	-14.7628
▁unattended	-14.7628
▁unpleasant	-14.7628
▁Olga	-14.7628
▁speechless	-14.7628
▁French	-14.7628
▁Frightened	-14.7628
▁Jesus	-14.7628
▁paradise	-14.7628
▁cavity	-14.7628
▁gnome	-14.7628
▁kitties	-14.7628
▁Mellie	-14.7628
▁kilos	-14.7628
▁inspection	-14.7628
▁cancelled	-14.7628
▁confront	-14.7628
▁fertilizer	-14.7628
▁jigsaw	-14.7628
▁Brett	-14.7629
▁Happyland	-14.7629
▁Perry	-14.7629
▁jingling	-14.7629
▁seventeen	-14.7629
▁knitted	-14.7629
▁Alina	-14.7629
olcanoes	-14.7629
▁Denny	-14.7629
▁antics	-14.763
▁operator	-14.763
▁drumming	-14.763
▁burped	-14.763
▁meaner	-14.7631
Mosquitoes	-14.7632
Excellent	-14.7632
▁Happily	-14.7632
▁entertained	-14.7632
▁snorting	-14.7633
▁difficulties	-14.7634
▁Cally	-14.7635
Henry	-14.7636
▁Cable	-14.7636
▁Mitch	-14.7638
▁slim	-14.7639
▁location	-14.7641
▁diner	-14.7642
▁BEEP	-14.7642
▁Caleb	-14.7642
▁appropriate	-14.7643
▁neighing	-14.7645
▁Dotty	-14.7645
Mrs	-14.7648
▁Lilli	-14.7649
▁grandad	-14.765
▁Jared	-14.7653
▁Mushroom	-14.7654
ecked	-14.7655
▁relatives	-14.7655
▁duckie	-14.7657
▁tweeting	-14.7658
▁mermaids	-14.766
▁Painter	-14.7661
▁yeah	-14.7663
gged	-14.7665
▁kiddo	-14.7666
▁sl	-14.7666
▁Nation	-14.7666
▁generations	-14.7672
▁Luis	-14.768
▁steeper	-14.7682
▁shaved	-14.7683
▁wrinkles	-14.7685
▁Jeep	-14.7686
▁Ping	-14.7691
▁braids	-14.7691
▁Hugs	-14.7692
▁Ducks	-14.7693
▁latch	-14.77
▁igloos	-14.7701
▁Spotty	-14.7702
▁Fake	-14.7704
▁de	-14.7714
▁foolishly	-14.7719
▁corals	-14.772
▁banners	-14.7732
pe	-14.7737
▁flutes	-14.7741
▁collector	-14.7742
▁Ink	-14.7749
▁brew	-14.7749
▁Chee	-14.7759
Buzz	-14.776
▁collars	-14.7761
▁pu	-14.7779
into	-14.778
▁coldest	-14.7783
▁fullest	-14.7784
▁blub	-14.7784
▁rudely	-14.7805
▁spool	-14.7806
▁screens	-14.7813
▁angles	-14.7816
▁bacon	-14.7819
▁Esm	-14.7833
▁Teach	-14.7847
▁Start	-14.7859
working	-14.786
▁select	-14.7861
▁fiddle	-14.7865
▁freeing	-14.7874
▁patched	-14.7875
▁levels	-14.7878
▁Cell	-14.7881
these	-14.7891
▁raging	-14.7894
▁belonging	-14.7895
▁medic	-14.7895
ul	-14.7901
▁accomplishments	-14.7907
Pull	-14.7913
ine	-14.7914
▁Spicy	-14.7916
▁ironed	-14.7927
▁menus	-14.7931
▁fr	-14.7943
▁seatbelts	-14.7951
asking	-14.7968
Ahhh	-14.7968
abracadabra	-14.7975
Gas	-14.7979
Drop	-14.798
Ann	-14.7989
Faster	-14.7989
Glad	-14.7992
▁heeded	-14.7996
▁truthful	-14.7998
Slow	-14.8
Work	-14.8004
Ding	-14.8009
Hide	-14.8013
▁Pass	-14.8024
▁Le	-14.8032
rious	-14.8034
▁tailor	-14.8037
stay	-14.8041
sked	-14.8045
small	-14.8068
▁booms	-14.8076
Print	-14.8078
▁hallways	-14.8091
wait	-14.8111
▁Sign	-14.8113
▁aim	-14.8114
▁fruity	-14.8136
pot	-14.8143
▁rummag	-14.8157
▁swimmers	-14.816
▁Cook	-14.8164
▁photographer	-14.8169
▁evenly	-14.8172
▁woodland	-14.8178
proud	-14.8181
▁sunbeam	-14.8186
lose	-14.819
▁dares	-14.8191
▁flipper	-14.8191
▁wagg	-14.8196
▁diver	-14.8197
Alex	-14.8204
ane	-14.8217
▁Pit	-14.8226
next	-14.8234
Ye	-14.8243
▁Brenda	-14.8243
▁oblige	-14.8244
▁grocer	-14.8244
▁scowl	-14.8248
rain	-14.8248
▁prison	-14.8251
olcano	-14.8252
egular	-14.8253
ussel	-14.8253
▁Bradley	-14.8253
▁Dalia	-14.8253
▁Dorothy	-14.8253
▁Freckles	-14.8253
▁SPLASH	-14.8253
▁accessory	-14.8253
▁assistance	-14.8253
▁cafeteria	-14.8253
▁galaxies	-14.8253
▁pixie	-14.8253
▁qualities	-14.8253
▁unpredictable	-14.8253
▁zucchini	-14.8253
▁drenched	-14.8253
▁hammock	-14.8253
▁console	-14.8253
▁tragedy	-14.8253
▁astounded	-14.8253
▁puppeteer	-14.8253
▁assemble	-14.8254
▁Eagle	-14.8254
▁Morty	-14.8254
▁assistant	-14.8254
▁disease	-14.8254
▁croc	-14.8254
▁snoozing	-14.8254
▁trespassing	-14.8254
▁froggy	-14.8254
▁scarier	-14.8254
▁Sallie	-14.8254
▁peasant	-14.8254
▁Gene	-14.8254
▁medium	-14.8254
▁Pitch	-14.8254
▁protest	-14.8255
▁skeptical	-14.8255
▁rosemary	-14.8255
▁Peaches	-14.8255
▁Mika	-14.8255
▁Lucie	-14.8256
▁chorus	-14.8256
▁Marge	-14.8256
▁courageously	-14.8256
▁disguise	-14.8256
ol	-14.8257
▁wildlife	-14.8257
▁kiwi	-14.8257
▁racket	-14.8258
▁knowledgeable	-14.8259
▁gentlemen	-14.8259
ictory	-14.8259
▁beams	-14.8259
▁mumbled	-14.8259
▁gown	-14.826
▁pyramids	-14.826
▁gluing	-14.8261
▁helpfulness	-14.8261
▁shimmery	-14.8264
▁pegs	-14.8264
▁width	-14.8265
▁crate	-14.8265
▁deliciousness	-14.8266
▁Benji	-14.8268
▁Dovey	-14.8268
▁Clever	-14.8269
▁unfreeze	-14.8269
Praying	-14.8269
▁Cheep	-14.8269
▁gemstone	-14.8271
▁babyish	-14.8273
▁waters	-14.8274
▁pouting	-14.8274
▁snout	-14.8276
▁chanted	-14.8276
▁curling	-14.8278
▁Corn	-14.8278
▁Puffy	-14.8279
▁plains	-14.828
▁storeowner	-14.8282
▁treetops	-14.8283
▁gr	-14.8284
ojo	-14.8287
▁Sofie	-14.8289
▁afternoons	-14.8291
▁Tori	-14.8293
▁Gear	-14.8294
elease	-14.8295
▁Diamond	-14.83
fashioned	-14.8304
▁recover	-14.8308
▁Besides	-14.8308
▁stinging	-14.831
▁fiery	-14.8314
▁Nap	-14.8315
▁mowing	-14.8316
▁perhaps	-14.8318
▁hopper	-14.8318
▁pure	-14.8319
being	-14.832
▁Snake	-14.8328
▁plaster	-14.8328
▁East	-14.8328
▁Atty	-14.8329
▁Steam	-14.8329
▁BOOM	-14.8334
hes	-14.8334
▁octopuses	-14.8341
umping	-14.835
▁suggestions	-14.8353
ere	-14.8354
▁Smart	-14.8364
▁floods	-14.8366
ary	-14.8369
row	-14.8373
tended	-14.8377
▁climbers	-14.8377
cake	-14.8378
▁miners	-14.8381
▁tissues	-14.8381
▁Snakes	-14.8382
▁rounder	-14.8387
bee	-14.839
▁mysteriously	-14.839
▁Fork	-14.8393
▁rep	-14.8398
surrender	-14.8398
catch	-14.8402
▁Slide	-14.8413
▁lightest	-14.8414
▁Steak	-14.8417
Pat	-14.8419
▁raw	-14.8426
Moving	-14.8432
brave	-14.8443
▁multipl	-14.8444
▁Socks	-14.8446
lots	-14.8449
oot	-14.8459
▁doggies	-14.8467
▁looser	-14.847
▁arc	-14.847
▁Stars	-14.8482
▁chug	-14.8485
Jamie	-14.8493
Santa	-14.8506
▁shap	-14.8512
▁foil	-14.852
dangerous	-14.8523
▁north	-14.8523
▁apply	-14.8524
em	-14.8525
otion	-14.8528
Both	-14.8539
Duck	-14.8539
den	-14.8539
▁Gran	-14.854
cause	-14.8542
ease	-14.8557
lower	-14.856
star	-14.856
clean	-14.8564
▁con	-14.8568
▁lure	-14.8568
rting	-14.8572
▁crush	-14.8578
zoom	-14.858
Spider	-14.858
lying	-14.8587
Number	-14.8589
▁growth	-14.8593
▁daycare	-14.8599
Fish	-14.8602
Bu	-14.8609
Sweetheart	-14.861
▁peep	-14.8616
▁Pen	-14.8618
▁role	-14.8627
Butterfly	-14.8632
Tomorrow	-14.8636
▁strive	-14.8645
Wisdom	-14.8647
Delicious	-14.8648
Math	-14.8648
▁pits	-14.8649
▁keepers	-14.8651
Books	-14.8654
Dinner	-14.8654
tasting	-14.8654
▁dis	-14.8684
yum	-14.8687
▁ex	-14.8689
try	-14.8691
gly	-14.8697
▁Mario	-14.8698
▁steamy	-14.8698
▁elves	-14.8705
▁Clap	-14.8708
▁liking	-14.8713
yummy	-14.8714
▁glanc	-14.8721
▁pity	-14.8731
great	-14.8737
▁rinses	-14.8739
line	-14.874
?",	-14.8757
▁evenings	-14.8765
▁clu	-14.8775
▁splits	-14.8784
▁shuffl	-14.879
▁Best	-14.8794
▁Caw	-14.8803
▁fashions	-14.8805
many	-14.8819
▁competitions	-14.882
stupid	-14.882
▁swerve	-14.8836
▁smudge	-14.8838
ho	-14.8849
▁corridor	-14.885
▁preparation	-14.885
▁flamingo	-14.8851
▁quarter	-14.8852
▁somersault	-14.8853
▁doughnut	-14.8853
best	-14.8874
▁Lego	-14.8879
▁Claw	-14.888
hole	-14.8891
careful	-14.8901
▁recycle	-14.891
▁prance	-14.8912
fted	-14.8914
▁strap	-14.8915
▁Gregg	-14.8916
yuck	-14.8918
▁menacing	-14.8919
▁Belinda	-14.892
▁Catherine	-14.892
▁Geoffrey	-14.892
▁Malcolm	-14.892
▁Scarlett	-14.892
▁Sylvia	-14.892
▁hydrant	-14.892
▁infected	-14.892
▁kennel	-14.892
▁perseverance	-14.892
▁possum	-14.892
▁receipt	-14.892
▁tambourine	-14.892
▁whinnied	-14.892
▁elated	-14.892
▁jewellery	-14.892
▁Braveheart	-14.892
▁Trudy	-14.892
▁python	-14.892
▁Figure	-14.892
▁intriguing	-14.892
▁Mitzy	-14.892
▁controller	-14.892
▁Grammy	-14.892
▁impatience	-14.892
▁gummies	-14.892
▁extinguisher	-14.892
▁cranny	-14.892
▁lingered	-14.892
▁charging	-14.8921
▁frills	-14.8921
▁crumbling	-14.8921
▁hospitality	-14.8921
▁Lord	-14.8922
▁Saturn	-14.8922
▁gatekeeper	-14.8922
▁carelessness	-14.8922
▁Poppie	-14.8922
▁Dilly	-14.8923
▁motionless	-14.8923
▁windmill	-14.8923
▁Dusty	-14.8923
▁crumbly	-14.8924
▁frilly	-14.8924
▁chanting	-14.8925
▁July	-14.8925
▁hairbrush	-14.8926
▁aahed	-14.8928
aynee	-14.8928
▁unravel	-14.8929
▁flushed	-14.8929
▁Titi	-14.893
▁Second	-14.8931
▁Moley	-14.8931
▁loosened	-14.8932
say	-14.8932
▁quarrelled	-14.8934
▁Lala	-14.8934
▁goalie	-14.8935
▁eachother	-14.8935
▁Shawn	-14.8936
▁Flipper	-14.8936
▁Flap	-14.8936
▁Cloe	-14.8937
▁Silvia	-14.8937
▁foamy	-14.8939
▁Adventure	-14.8944
▁wilt	-14.8944
nknown	-14.8945
▁dense	-14.8945
▁grime	-14.8947
▁avail	-14.8948
▁jingled	-14.8948
▁superpowers	-14.8951
▁busily	-14.8952
um	-14.8952
▁boast	-14.8953
▁Furball	-14.8953
rying	-14.8959
▁wi	-14.8962
▁journals	-14.8969
▁slowest	-14.8979
▁Wash	-14.8982
mm	-14.8985
▁replying	-14.8987
▁woolly	-14.8989
▁doughnuts	-14.899
▁helplessly	-14.8991
▁haven	-14.8993
▁thumping	-14.8999
▁Clouds	-14.9003
Danny	-14.9005
animals	-14.9005
▁boredom	-14.9009
rotting	-14.9009
▁Frances	-14.9013
▁backseat	-14.9014
▁str	-14.9016
▁yachts	-14.9018
▁skilled	-14.9023
▁chart	-14.9028
▁squir	-14.9035
▁breakable	-14.9041
Mixing	-14.9046
▁Plane	-14.9051
▁Bull	-14.9058
rrr	-14.9058
▁Gobble	-14.906
▁Throw	-14.9061
keeper	-14.9066
book	-14.907
port	-14.907
▁pil	-14.9082
▁rotate	-14.9088
▁Apples	-14.9088
shrink	-14.9091
Funny	-14.9093
▁possibl	-14.9096
lit	-14.9097
▁coconuts	-14.9107
▁research	-14.9117
▁Ama	-14.9119
▁zagged	-14.9127
Nope	-14.9129
▁Jed	-14.9133
▁spoonfuls	-14.9145
truck	-14.9157
Shut	-14.9159
▁riders	-14.9171
ni	-14.9176
▁Mariah	-14.9189
▁baseballs	-14.9192
▁Onion	-14.9198
Coco	-14.9199
▁layers	-14.9199
▁feat	-14.92
cy	-14.9203
Spin	-14.9204
▁toddlers	-14.9206
▁Julian	-14.9209
▁dents	-14.9209
▁glues	-14.9216
▁marrying	-14.9216
▁Poison	-14.9223
ari	-14.9224
▁pant	-14.9227
▁v	-14.923
▁Nori	-14.9248
Milo	-14.9257
ainbows	-14.9257
Fight	-14.9267
▁cases	-14.9271
Tree	-14.9284
New	-14.9284
ooking	-14.9299
▁wands	-14.9299
Aunt	-14.9301
▁cradle	-14.9302
tie	-14.9304
▁sparkler	-14.9307
▁suns	-14.9313
whoosh	-14.9326
▁safaris	-14.9329
Milk	-14.9343
better	-14.9344
▁strongly	-14.9344
Again	-14.935
Birdie	-14.9351
▁performances	-14.9351
Sweetie	-14.9352
▁darken	-14.9367
Swim	-14.9367
sized	-14.937
Cluck	-14.9371
Merry	-14.9372
maker	-14.9374
still	-14.9377
▁coax	-14.9379
History	-14.9389
▁Spin	-14.9391
Sing	-14.9391
▁Six	-14.9396
▁jumble	-14.9411
beautiful	-14.9425
▁footing	-14.9427
▁veils	-14.9428
▁slithers	-14.9442
▁saucer	-14.9451
▁Bot	-14.9451
▁skeletons	-14.9453
lipping	-14.9466
▁flipp	-14.947
either	-14.9491
bout	-14.9491
▁br	-14.9497
▁liquids	-14.9516
Fred	-14.9536
▁Pirate	-14.9539
▁alleyway	-14.955
▁swoosh	-14.955
▁toothache	-14.9551
▁waists	-14.9561
▁violet	-14.9566
▁tadpole	-14.9566
▁cartwheel	-14.9568
ment	-14.9571
▁habitat	-14.9578
▁nook	-14.9583
▁taxis	-14.9588
▁owie	-14.9605
▁chests	-14.9608
▁fully	-14.9614
ical	-14.9616
▁droop	-14.9619
▁decrease	-14.9624
▁divide	-14.9624
turn	-14.9625
▁interrupt	-14.9626
▁title	-14.963
▁galaxy	-14.9634
Woohoo	-14.9634
▁America	-14.9634
▁Anthony	-14.9634
▁Baxter	-14.9634
▁Casper	-14.9634
▁Cecilia	-14.9634
▁Celeste	-14.9634
▁Courtney	-14.9634
▁Madison	-14.9634
▁Marshmallow	-14.9634
▁Poochy	-14.9634
▁Prissy	-14.9634
▁Slithers	-14.9634
▁Spencer	-14.9634
▁Swift	-14.9634
▁barrier	-14.9634
▁degrees	-14.9634
▁fragrant	-14.9634
▁gallery	-14.9634
▁submarine	-14.9634
▁townsfolk	-14.9634
▁virtue	-14.9634
▁Isaac	-14.9634
▁Lottie	-14.9634
▁clumsiness	-14.9634
▁Amaya	-14.9634
▁Lindsay	-14.9634
▁misbehaving	-14.9634
▁algae	-14.9634
▁employee	-14.9634
▁genius	-14.9634
▁luxuries	-14.9634
▁Navy	-14.9634
▁memorable	-14.9634
Aaaah	-14.9634
▁clipboard	-14.9634
▁failure	-14.9634
▁Garry	-14.9634
▁Dottie	-14.9634
▁Glen	-14.9634
▁Miranda	-14.9634
▁Jenkins	-14.9634
▁Crane	-14.9634
▁Yogi	-14.9634
▁Lanny	-14.9635
▁Abbey	-14.9635
▁professor	-14.9635
▁Clarice	-14.9635
▁Chip	-14.9635
Oooh	-14.9635
▁stranded	-14.9635
▁Sooty	-14.9636
▁brewing	-14.9636
▁priceless	-14.9636
▁pliers	-14.9636
▁Alma	-14.9636
▁wealthier	-14.9636
▁Paulina	-14.9636
▁Bossy	-14.9637
▁summit	-14.9637
▁advised	-14.9637
▁Finders	-14.9637
▁fate	-14.9637
▁Crayons	-14.9637
▁scooting	-14.9638
▁honour	-14.9638
▁dragonflies	-14.9639
▁wilting	-14.964
▁blushes	-14.9641
▁boasted	-14.9641
▁narrower	-14.9642
▁thawed	-14.9642
▁snugly	-14.9642
▁Pauline	-14.9643
▁yeast	-14.9645
▁Box	-14.9645
Opera	-14.9646
▁swerved	-14.9646
▁handcuffs	-14.9647
▁strands	-14.9647
Sandy	-14.9649
▁pests	-14.965
▁humor	-14.965
▁Pluto	-14.965
▁Tanya	-14.9651
▁Nicole	-14.9651
▁Basketball	-14.9651
▁clogged	-14.9651
▁Bully	-14.9653
▁experimenting	-14.9653
▁Drake	-14.9654
▁desired	-14.9654
▁vibrations	-14.9657
▁cheapest	-14.966
▁freshest	-14.9661
▁Smiles	-14.9662
lar	-14.9662
▁Berry	-14.9665
▁invent	-14.9667
▁Jungle	-14.967
▁Bluebird	-14.9673
▁webbed	-14.9676
▁backstage	-14.9683
▁drape	-14.9688
▁Somehow	-14.9693
ings	-14.9694
▁Nosy	-14.9698
▁Click	-14.9708
▁sunbeams	-14.9713
▁fro	-14.9713
▁Fix	-14.9714
▁Twig	-14.9716
▁Castle	-14.9717
▁tulips	-14.9718
▁tipping	-14.9719
hard	-14.9723
open	-14.9726
▁carving	-14.973
polish	-14.9731
Lilly	-14.9733
▁Anny	-14.9734
▁heater	-14.9734
waiting	-14.9738
c	-14.974
▁Fer	-14.9746
Car	-14.9746
Pirates	-14.975
Papa	-14.9752
▁Bring	-14.9753
▁combinations	-14.9754
Wheee	-14.976
▁snores	-14.9765
▁spe	-14.9767
▁closets	-14.9769
▁pre	-14.977
▁salute	-14.9772
▁Andi	-14.9772
legged	-14.9775
sun	-14.9783
bad	-14.9794
▁twinkles	-14.9797
▁pounces	-14.9802
ripping	-14.9808
▁whips	-14.981
▁Tomato	-14.9828
having	-14.9828
▁youths	-14.9835
▁harsher	-14.9846
uck	-14.9848
▁hornet	-14.9852
juice	-14.9852
▁Add	-14.9858
▁Luca	-14.9859
ncient	-14.9863
ds	-14.9866
pay	-14.9871
▁Dot	-14.9877
▁poet	-14.9884
▁Scared	-14.9885
Abigail	-14.9888
abbed	-14.9889
▁raged	-14.9889
▁New	-14.989
Snow	-14.9894
board	-14.9896
▁en	-14.99
Shake	-14.9906
▁dusting	-14.9906
▁Hooray	-14.9909
▁swipe	-14.991
▁temper	-14.9913
rise	-14.9916
poison	-14.9922
Poo	-14.9926
▁Sweetie	-14.993
▁bossed	-14.9932
yield	-14.9933
Chirpy	-14.9934
nest	-14.9937
▁Tonight	-14.9938
▁Sim	-14.9944
▁budget	-14.995
hurt	-14.995
Polish	-14.9953
thanked	-14.9957
Wealthy	-14.9957
▁mechanics	-14.9971
▁couches	-14.9975
eke	-14.9987
ion	-14.9987
▁tapes	-14.9988
▁Hans	-14.9989
Ted	-14.9995
▁Surrender	-15.0001
gent	-15.0023
▁claim	-15.0024
ractice	-15.003
pop	-15.0039
▁bob	-15.0052
ast	-15.0055
laughed	-15.0058
▁Mop	-15.0062
body	-15.0064
▁plugs	-15.0065
▁Sail	-15.0084
▁raccoons	-15.0085
Spring	-15.0098
garden	-15.01
▁jolt	-15.0105
Tonight	-15.0107
people	-15.0114
▁twirly	-15.0124
STOP	-15.0126
▁burrows	-15.0128
Child	-15.0136
▁tri	-15.014
▁meantime	-15.0141
Patience	-15.0142
Crazy	-15.0143
▁hairs	-15.0147
▁Pancake	-15.0156
▁elde	-15.0157
table	-15.0165
▁sta	-15.0176
wer	-15.0179
Stand	-15.018
pen	-15.0181
▁bases	-15.019
snap	-15.0192
▁buttery	-15.0194
ask	-15.0211
▁hooting	-15.0211
▁sons	-15.0213
▁ve	-15.0214
▁Freeze	-15.0216
boat	-15.0217
ged	-15.0231
▁ye	-15.0245
▁restaurants	-15.0251
rat	-15.026
▁rhinos	-15.0274
proving	-15.0278
▁clums	-15.0279
▁per	-15.0322
▁daffodil	-15.0329
▁passage	-15.0331
▁lightbulb	-15.0333
▁operate	-15.0335
▁paramedic	-15.0336
J	-15.0339
atches	-15.034
▁Phew	-15.0342
owl	-15.0342
▁Tap	-15.0346
▁spinner	-15.0351
▁forms	-15.0356
▁oval	-15.0369
▁moles	-15.0372
▁stoop	-15.0376
▁turnip	-15.0378
▁Louis	-15.0379
▁misbehave	-15.0392
▁disgust	-15.0393
▁Gerald	-15.0393
elax	-15.0394
▁fidget	-15.0395
▁entertain	-15.0396
▁clunk	-15.0396
mon	-15.0397
undreds	-15.0397
ictor	-15.0398
▁quench	-15.0399
ina	-15.0401
hinoceros	-15.0401
▁itching	-15.0401
▁Scamp	-15.0402
▁accurate	-15.0403
uffy	-15.0403
▁Contest	-15.0404
▁Genie	-15.0404
▁Gramps	-15.0404
▁Nevertheless	-15.0404
▁Nibs	-15.0404
▁Winston	-15.0404
▁aggressive	-15.0404
▁cauldron	-15.0404
▁ignition	-15.0404
▁masseuse	-15.0404
▁vibrate	-15.0404
▁violence	-15.0404
▁Eloise	-15.0404
▁Margie	-15.0404
▁Maurice	-15.0404
▁sapling	-15.0404
▁examination	-15.0404
▁mercy	-15.0404
▁supervision	-15.0404
▁Scarecrow	-15.0404
▁Wilson	-15.0404
▁nutritious	-15.0404
▁sillier	-15.0404
▁Carolyn	-15.0404
▁observation	-15.0404
▁Tanner	-15.0404
▁walrus	-15.0404
▁Farah	-15.0404
▁loveliest	-15.0404
▁Annalise	-15.0404
▁Dippy	-15.0404
Fragile	-15.0404
▁Tiana	-15.0404
▁easiest	-15.0404
▁occurred	-15.0404
▁Cross	-15.0404
▁Lucia	-15.0404
▁Adeline	-15.0404
▁moaned	-15.0404
▁Worried	-15.0404
▁productive	-15.0404
▁superstar	-15.0404
▁snooping	-15.0404
▁Simi	-15.0404
▁scruffy	-15.0405
▁Jamal	-15.0405
▁Duckie	-15.0405
▁ignorance	-15.0405
▁impression	-15.0405
▁scraping	-15.0405
▁Jacklyn	-15.0406
▁duty	-15.0406
▁gracefulness	-15.0406
▁accused	-15.0407
▁sharpener	-15.0407
▁unimportant	-15.0407
▁ginger	-15.0407
▁realising	-15.0407
▁nervousness	-15.0407
eiko	-15.0408
▁Ashlee	-15.0408
▁squirming	-15.0408
▁pleasantly	-15.0408
▁Pogo	-15.0409
▁sunbathe	-15.0409
ivian	-15.041
▁anxiety	-15.041
▁snowstorm	-15.041
▁comic	-15.041
▁Nail	-15.041
▁squiggles	-15.0411
▁erupting	-15.0412
▁Parker	-15.0413
▁Strip	-15.0414
▁recovery	-15.0415
▁fee	-15.0415
▁Melly	-15.0415
▁shutting	-15.0416
▁tender	-15.0417
▁mantel	-15.0417
▁eyebrows	-15.0417
▁Grape	-15.0418
▁grapefruit	-15.0418
▁tattered	-15.0418
▁thermos	-15.0419
▁echoes	-15.042
▁Ghost	-15.0421
▁Trixie	-15.0421
▁clipped	-15.0422
▁bulldog	-15.0423
▁intentions	-15.0423
▁launched	-15.0424
▁startling	-15.0425
▁drawbridge	-15.0425
▁Forest	-15.0428
▁cheater	-15.0429
▁restful	-15.043
▁greatness	-15.0431
▁sizzl	-15.0432
▁ensure	-15.0436
▁Fae	-15.0437
▁flatten	-15.0438
▁complaints	-15.0438
▁patrol	-15.0439
Yup	-15.044
▁gasping	-15.044
▁crafting	-15.044
▁hurries	-15.044
▁Woofy	-15.0444
▁Apple	-15.0444
chugga	-15.045
▁chemicals	-15.0451
▁wigs	-15.0451
▁sparklers	-15.0457
▁grades	-15.0458
▁dollies	-15.0459
▁Balloon	-15.0461
▁shortly	-15.0461
▁Luxury	-15.0462
▁bursting	-15.0464
▁tarp	-15.0465
▁Bread	-15.0468
Whiskers	-15.0469
▁Ari	-15.0471
▁Bart	-15.0471
▁Colors	-15.0473
▁Ivan	-15.0477
▁Forever	-15.048
▁surfboards	-15.0485
▁Touch	-15.0489
cars	-15.0491
▁cawing	-15.0493
licked	-15.0495
ausing	-15.0497
ching	-15.0498
rina	-15.0501
Annie	-15.0504
▁hotdogs	-15.0504
▁playmates	-15.0506
▁playdough	-15.0511
▁Cave	-15.0519
▁canary	-15.052
▁Lawyer	-15.0521
▁effects	-15.0523
▁Grapes	-15.0523
place	-15.0526
▁Blow	-15.0527
▁Jail	-15.0534
▁polishes	-15.0535
▁matted	-15.0537
▁triplet	-15.054
▁sn	-15.0541
cious	-15.0546
▁Yawn	-15.0549
▁pound	-15.0549
last	-15.0552
rot	-15.0556
▁severe	-15.0565
called	-15.0573
▁postcards	-15.0589
▁bedrooms	-15.06
▁stress	-15.0603
▁throats	-15.0605
onely	-15.0608
▁Perhaps	-15.0609
fed	-15.0609
▁Squash	-15.0612
▁gu	-15.0615
▁Tally	-15.0616
▁bales	-15.0616
▁Jessy	-15.0618
▁fisher	-15.0618
share	-15.062
▁squeals	-15.0622
ends	-15.0643
acing	-15.0653
Tina	-15.0662
▁Sheep	-15.0669
▁whistler	-15.067
erry	-15.0675
▁sphere	-15.0675
uffled	-15.0677
▁disagreements	-15.0678
▁trace	-15.0682
▁golfing	-15.0685
▁entranced	-15.0686
arm	-15.0686
▁magicians	-15.0694
men	-15.0701
▁Boot	-15.0702
ig	-15.0705
▁Carrots	-15.0727
▁stuffy	-15.0729
▁ports	-15.073
▁Fan	-15.0731
▁checkup	-15.0746
going	-15.0747
▁whee	-15.0751
▁receiver	-15.0771
Hoppy	-15.0777
▁wade	-15.0778
▁perk	-15.0779
▁microphones	-15.0792
▁tr	-15.0793
▁achievements	-15.0795
hide	-15.0806
Swing	-15.0811
▁awaits	-15.0812
▁blouses	-15.0818
▁appearances	-15.0822
▁ge	-15.0822
▁bulls	-15.0824
moo	-15.0831
▁spines	-15.0837
quack	-15.0844
Lena	-15.085
▁packs	-15.0851
▁scanne	-15.0865
Nap	-15.0869
forced	-15.0875
ea	-15.0877
Space	-15.0878
▁Eager	-15.089
Fox	-15.0894
click	-15.0894
Friend	-15.0896
ocked	-15.09
▁Stir	-15.0921
Frog	-15.0925
ell	-15.0928
Aha	-15.0932
▁Wind	-15.0936
▁dye	-15.0937
▁radios	-15.0938
▁Cate	-15.094
iving	-15.0941
ise	-15.0943
Li	-15.0949
Coming	-15.0951
Press	-15.0958
Lemonade	-15.096
▁trumpeted	-15.096
Juice	-15.0961
Squeeze	-15.0965
de	-15.0968
▁prop	-15.0969
Coffee	-15.0973
Celery	-15.0973
▁boarding	-15.0978
ug	-15.0983
food	-15.0984
ula	-15.0988
▁quiver	-15.0992
owing	-15.0998
▁pac	-15.1003
▁Greed	-15.1005
winging	-15.1014
▁mid	-15.1018
▁explorations	-15.102
Flowers	-15.1023
▁arguments	-15.1025
rrrr	-15.103
Sour	-15.1044
opened	-15.1048
▁permitt	-15.105
▁teary	-15.1052
print	-15.1056
▁construct	-15.1058
?!”	-15.1061
life	-15.1067
iled	-15.1069
angry	-15.1075
▁shift	-15.1087
▁product	-15.109
lived	-15.1092
▁hiking	-15.1095
avoring	-15.1109
walk	-15.1112
walked	-15.1117
ty	-15.1119
chug	-15.1124
▁cre	-15.1138
▁axes	-15.1138
grandpa	-15.1138
ough	-15.1145
▁leaked	-15.1146
▁monitor	-15.1152
▁cargo	-15.1152
▁merchant	-15.1159
▁Flop	-15.116
▁professional	-15.1162
▁pelican	-15.1162
▁teenager	-15.1164
▁worksheet	-15.1165
▁improvement	-15.1166
▁benefit	-15.1166
▁Pastel	-15.1168
▁kernel	-15.1169
▁shoelace	-15.117
▁fossil	-15.117
▁matchstick	-15.117
should	-15.1174
py	-15.1178
▁Stripe	-15.1186
hug	-15.119
▁Town	-15.1191
both	-15.1193
▁mitt	-15.1208
▁repa	-15.1224
▁inspire	-15.1227
▁Sock	-15.123
urfing	-15.1232
▁jiggle	-15.1233
▁extend	-15.1234
▁gloss	-15.1236
▁miraculous	-15.1236
▁Australia	-15.1237
▁Connor	-15.1237
▁Cynthia	-15.1237
▁Goldilocks	-15.1237
▁Grizzly	-15.1237
▁Guardian	-15.1237
▁Hilary	-15.1237
▁Melinda	-15.1237
▁Paloma	-15.1237
▁Peacock	-15.1237
▁Scout	-15.1237
▁Tiffany	-15.1237
▁Trista	-15.1237
▁Yolanda	-15.1237
▁contagious	-15.1237
▁flexibility	-15.1237
▁motivated	-15.1237
▁terrifying	-15.1237
▁treadmill	-15.1237
▁utensils	-15.1237
▁vigorously	-15.1237
▁Jeannie	-15.1237
▁Pablo	-15.1237
▁previous	-15.1237
▁shepherd	-15.1237
▁kindergarten	-15.1237
▁receptionist	-15.1237
▁boastful	-15.1237
▁peewee	-15.1237
▁discomfort	-15.1237
▁disrespectful	-15.1237
Stupid	-15.1237
▁Alyssa	-15.1237
▁Colorful	-15.1237
▁cleanliness	-15.1237
▁Della	-15.1237
▁educational	-15.1237
▁trimming	-15.1237
▁Mendy	-15.1237
▁fifth	-15.1237
▁grumpily	-15.1237
▁concentrating	-15.1237
▁Niki	-15.1237
▁brilliance	-15.1237
▁Bryn	-15.1237
▁Wizard	-15.1237
▁courtyard	-15.1237
▁Aggie	-15.1237
▁squiggly	-15.1237
▁Fiddle	-15.1237
▁Maple	-15.1237
▁smeared	-15.1237
▁Shampoo	-15.1237
▁Teddie	-15.1237
▁contact	-15.1237
▁furthest	-15.1237
▁prodded	-15.1238
▁dedicated	-15.1238
▁frolicked	-15.1238
▁sunbathing	-15.1238
▁Lillian	-15.1238
▁Omar	-15.1238
▁trolley	-15.1238
▁Hunter	-15.1238
▁blaring	-15.1238
▁Barker	-15.1238
▁suprised	-15.1238
▁rumour	-15.1238
▁traveller	-15.1238
▁strained	-15.1238
▁yolk	-15.1239
Flexible	-15.1239
▁blankie	-15.1239
▁reluctant	-15.1239
▁choppy	-15.1239
▁deafness	-15.1239
▁password	-15.1239
▁proudest	-15.124
▁frustrating	-15.124
▁savoured	-15.124
▁foolishness	-15.124
▁drooping	-15.1241
▁deliciously	-15.1241
▁Lolly	-15.1242
▁blossoming	-15.1242
▁Stamp	-15.1243
AC	-15.1244
▁Brianne	-15.1244
▁ivy	-15.1244
▁Stormy	-15.1244
▁Bridget	-15.1245
▁cubby	-15.1245
▁require	-15.1246
▁Doris	-15.1246
▁clinked	-15.1246
▁screeching	-15.1248
▁craters	-15.1249
▁responding	-15.125
▁counters	-15.1251
▁mazes	-15.1254
otic	-15.1254
▁Fruit	-15.1254
▁clownfish	-15.1255
▁Huggy	-15.1255
▁Clothes	-15.1255
▁Bizzy	-15.1255
▁Smiley	-15.1256
▁buggy	-15.1256
▁Coby	-15.1256
▁mansion	-15.1257
▁predators	-15.1258
▁Alarm	-15.1262
▁Marsha	-15.1262
▁Magnet	-15.1264
▁sizzled	-15.1265
▁combine	-15.127
▁grate	-15.1271
▁Storm	-15.1272
▁focusing	-15.1277
▁Island	-15.1277
▁Sailor	-15.1277
▁Steel	-15.1278
ugh	-15.1279
has	-15.128
nted	-15.128
▁asteroids	-15.1281
▁String	-15.1281
▁stillness	-15.1283
▁Bubby	-15.1283
brown	-15.1284
▁Nella	-15.1284
▁Sharp	-15.1285
▁Elin	-15.1285
▁Tiki	-15.1286
▁flo	-15.1287
▁wallpaper	-15.1292
fire	-15.1294
flower	-15.1294
▁Also	-15.1298
▁pulse	-15.1299
▁deserts	-15.13
▁flowerbed	-15.1301
▁Lemon	-15.1303
▁crowds	-15.1304
aded	-15.1309
eeing	-15.131
▁curvy	-15.1312
value	-15.1313
▁cu	-15.1314
lost	-15.1315
▁Fancy	-15.1323
▁wounded	-15.1329
▁Half	-15.1337
lock	-15.134
Charlie	-15.134
Jerry	-15.1342
ddy	-15.1344
▁pest	-15.1346
hang	-15.1348
▁Exercis	-15.1349
▁Fay	-15.1355
▁Crash	-15.1357
▁Tane	-15.1359
▁jailer	-15.1365
▁rectangles	-15.1366
▁bullets	-15.1368
keep	-15.1369
Maria	-15.137
explore	-15.1377
▁crime	-15.1378
▁tense	-15.1381
pick	-15.1387
▁boar	-15.1394
▁livingroom	-15.1403
▁Food	-15.1404
Maggie	-15.1411
▁specks	-15.1415
▁walki	-15.1429
inched	-15.1435
surprise	-15.1437
▁investigated	-15.1442
afety	-15.1446
▁Jimm	-15.1453
▁besides	-15.1454
stick	-15.1463
▁Mariam	-15.1468
▁daydreamed	-15.1471
▁mornings	-15.1472
▁bound	-15.1472
Girls	-15.1483
▁south	-15.1492
▁shin	-15.1502
▁Pan	-15.1502
bit	-15.1517
▁neared	-15.1518
▁Smiths	-15.1521
▁Press	-15.1528
spicy	-15.1533
▁Child	-15.1536
▁sharper	-15.1537
▁glare	-15.1537
▁stru	-15.1558
asks	-15.1559
keeping	-15.1564
olding	-15.1584
▁trader	-15.1585
▁flashy	-15.1598
▁wor	-15.1599
sign	-15.1602
▁grease	-15.1607
ening	-15.161
▁Mar	-15.1612
Behave	-15.162
ttle	-15.162
ep	-15.1623
▁na	-15.1624
▁Loyal	-15.1631
▁explodes	-15.164
▁kayaks	-15.1641
▁radiat	-15.1643
▁Treasure	-15.1643
Sunny	-15.165
Match	-15.1656
bo	-15.167
tart	-15.1674
waited	-15.1677
Meet	-15.1678
▁justice	-15.1688
joy	-15.1695
▁Inch	-15.1697
▁Honk	-15.1707
autiously	-15.1711
eena	-15.1713
school	-15.172
walking	-15.1727
most	-15.1741
full	-15.1742
Dance	-15.1749
evo	-15.1752
▁handmade	-15.1758
▁bakers	-15.1762
neigh	-15.1767
Ball	-15.1776
lantern	-15.1777
▁cl	-15.1778
▁swatt	-15.1785
▁leaps	-15.1793
Dangerous	-15.1799
▁vases	-15.1801
rack	-15.1805
tle	-15.1809
Green	-15.1827
Dream	-15.1829
▁Puzzle	-15.1832
ocket	-15.1834
▁Push	-15.1849
zagged	-15.1855
Amen	-15.186
Things	-15.1864
▁bloody	-15.1865
Hurray	-15.1877
wiped	-15.1878
▁rugs	-15.1879
Fuel	-15.1881
Cheap	-15.1883
Bloom	-15.1884
Count	-15.1887
Pop	-15.1897
▁Mc	-15.1902
show	-15.1908
▁Catch	-15.1911
▁Sa	-15.1911
▁chipmunks	-15.1915
family	-15.1916
safe	-15.1922
▁dew	-15.1934
needed	-15.1935
sleep	-15.1938
Moon	-15.1941
Pete	-15.1941
▁Air	-15.1941
flowers	-15.1953
Arr	-15.1964
▁cranes	-15.1969
master	-15.1972
▁pleasures	-15.1976
land	-15.1989
pink	-15.1993
▁Wheel	-15.1994
baa	-15.1996
▁Nat	-15.2001
ud	-15.2004
soon	-15.2012
▁strangely	-15.2012
▁Blu	-15.2033
▁Ev	-15.2033
Doll	-15.2045
▁wrinkle	-15.205
▁Em	-15.2051
▁enters	-15.2054
friendly	-15.2056
before	-15.206
▁wrecks	-15.2068
▁Danger	-15.2074
▁croissant	-15.2075
▁classmate	-15.2076
▁brow	-15.2076
field	-15.2076
▁generation	-15.2078
▁ABC	-15.2078
▁raindrop	-15.2078
▁footprint	-15.2079
▁errand	-15.2083
▁Mam	-15.2083
▁Mix	-15.2088
▁Color	-15.2096
▁border	-15.2108
sit	-15.211
▁tags	-15.2111
▁kn	-15.2113
Fin	-15.2115
▁scents	-15.2117
lo	-15.2118
live	-15.212
▁spicie	-15.2125
strong	-15.2135
▁unfroze	-15.2135
▁apologise	-15.2136
▁reunite	-15.2137
▁descend	-15.2141
▁Tigers	-15.2142
▁splint	-15.2144
eindeer	-15.2145
ubber	-15.2145
▁triumph	-15.2146
▁intense	-15.2146
▁congratulate	-15.2146
▁Archie	-15.2146
▁Bosco	-15.2146
▁Claudia	-15.2146
▁Debby	-15.2146
▁Denise	-15.2146
▁Frisbee	-15.2146
▁Jupiter	-15.2146
▁Luigi	-15.2146
▁Nessie	-15.2146
▁Ozzie	-15.2146
▁Shiloh	-15.2146
▁Suzanne	-15.2146
▁Yuliya	-15.2146
▁advertisement	-15.2146
▁concentration	-15.2146
▁crannies	-15.2146
▁energised	-15.2146
▁engulf	-15.2146
▁harmonica	-15.2146
▁iceberg	-15.2146
▁jaguar	-15.2146
▁nutrients	-15.2146
▁orchestra	-15.2146
▁parachute	-15.2146
▁rapidly	-15.2146
▁rollercoaster	-15.2146
▁sensitive	-15.2146
▁vivid	-15.2146
▁dashboard	-15.2146
▁vessel	-15.2146
▁Grumbles	-15.2146
▁Wobble	-15.2146
▁pianist	-15.2146
▁unfurl	-15.2146
▁Laila	-15.2146
▁Cozy	-15.2146
Jordan	-15.2146
▁Strangely	-15.2146
▁duties	-15.2146
▁fluffiest	-15.2146
▁Nala	-15.2146
▁disorganized	-15.2146
▁stammered	-15.2146
▁Cubby	-15.2146
▁favour	-15.2146
▁stuttered	-15.2146
▁Fawn	-15.2146
▁instructor	-15.2146
▁lollies	-15.2146
▁Leila	-15.2146
▁paddock	-15.2146
▁thoroughly	-15.2146
▁proposed	-15.2146
Wonderful	-15.2146
▁Bowser	-15.2146
▁anteater	-15.2146
▁cozier	-15.2146
▁dumpster	-15.2146
▁Marcie	-15.2146
▁Georgia	-15.2146
▁macaw	-15.2146
▁shipwreck	-15.2146
▁Marlin	-15.2147
▁omelette	-15.2147
▁attentively	-15.2147
▁Sugi	-15.2147
▁cooperation	-15.2147
ingdom	-15.2147
▁Flick	-15.2147
▁dodgeball	-15.2147
▁stylist	-15.2147
▁dribbling	-15.2147
▁swiftly	-15.2147
▁Lance	-15.2147
▁dusk	-15.2147
▁loudspeaker	-15.2147
▁Cammy	-15.2148
▁nozzle	-15.2148
▁Henri	-15.2148
▁detached	-15.2148
▁chessboard	-15.2148
▁chipped	-15.2148
▁quivering	-15.2148
▁activated	-15.2149
▁innocently	-15.2149
▁Manu	-15.2149
▁friendlier	-15.215
▁arch	-15.215
▁jellybeans	-15.215
▁fiber	-15.2151
Exit	-15.2151
▁protested	-15.2151
▁drooped	-15.2152
▁dreamland	-15.2152
▁Sparkly	-15.2153
▁Dinah	-15.2153
▁yipped	-15.2154
▁winced	-15.2154
▁Grey	-15.2154
▁cancel	-15.2155
▁Amazed	-15.2156
▁Putu	-15.2156
▁trinkets	-15.2156
▁yelping	-15.2158
▁lifeless	-15.2159
▁easel	-15.2159
▁rubble	-15.216
▁wonderfully	-15.216
▁threaten	-15.216
▁veins	-15.216
▁competitors	-15.2161
▁Buzzie	-15.2161
▁darkened	-15.2161
▁Monte	-15.2162
▁Tiffy	-15.2165
▁Harley	-15.2166
▁Lincoln	-15.2166
▁rippled	-15.2166
▁Itchy	-15.2166
▁Season	-15.2166
▁clubhouse	-15.2167
▁lounge	-15.2169
▁Pammy	-15.2171
▁cautioned	-15.2172
▁fangs	-15.2172
▁error	-15.2172
▁pooped	-15.2174
▁unexpectedly	-15.2174
▁Bally	-15.2175
▁pulp	-15.2176
▁kickball	-15.2176
▁starving	-15.2177
▁kidding	-15.2177
itten	-15.2179
▁skated	-15.2181
▁naked	-15.2183
ignorant	-15.2183
▁vow	-15.2185
▁digger	-15.2185
adishes	-15.2186
anish	-15.2189
▁Cloud	-15.219
▁projector	-15.2194
▁Ladybug	-15.2194
▁Sweety	-15.2196
▁Yaya	-15.2197
▁snarls	-15.22
▁disk	-15.2201
feel	-15.2206
▁circula	-15.2208
▁bargain	-15.221
watch	-15.2211
▁Pillow	-15.2216
▁Drawing	-15.2222
raw	-15.2223
▁savour	-15.2224
▁Soldier	-15.2225
after	-15.2226
▁upstream	-15.2226
uri	-15.2228
▁depends	-15.2229
▁habitats	-15.2235
oomer	-15.2236
▁saucers	-15.2238
▁Fruits	-15.224
▁rhinoceroses	-15.2241
▁Whistling	-15.2241
▁unity	-15.2242
▁Playful	-15.2243
▁successes	-15.2247
▁fawn	-15.2249
ady	-15.2255
▁Cr	-15.2257
▁streaks	-15.2259
▁duo	-15.2261
▁woo	-15.2265
▁Pilot	-15.2266
wear	-15.2271
▁Pine	-15.2271
▁Cal	-15.2272
▁icicles	-15.2275
▁Thorn	-15.2286
venturing	-15.2287
▁Pay	-15.2287
ance	-15.2288
▁Pastels	-15.2291
▁rancher	-15.2292
▁blackbird	-15.2292
La	-15.23
▁cookbook	-15.2303
▁hoo	-15.2306
ylee	-15.2314
telling	-15.2314
▁adventurer	-15.232
▁array	-15.2321
▁crawler	-15.2321
adies	-15.2323
▁Pack	-15.2328
record	-15.2329
ind	-15.2331
sses	-15.2333
Best	-15.2335
▁Henny	-15.234
▁Hill	-15.2347
▁rhymes	-15.2349
▁feelers	-15.2357
ris	-15.2369
▁travelers	-15.2373
▁Shop	-15.2374
▁relaxes	-15.2379
▁chambers	-15.2379
cold	-15.2384
ama	-15.2385
▁intervene	-15.2386
Answer	-15.2387
pt	-15.2388
▁rounds	-15.239
▁inventions	-15.2401
▁squawks	-15.2417
every	-15.2418
▁Fuel	-15.2418
▁Sand	-15.2433
▁dot	-15.2437
▁shortcuts	-15.2442
Am	-15.2443
eaten	-15.2449
▁outage	-15.2452
▁secured	-15.246
ounds	-15.247
splash	-15.2471
▁seasoning	-15.2475
▁trek	-15.2476
▁eng	-15.2477
feeling	-15.248
▁inhale	-15.2483
Tag	-15.2486
▁burner	-15.2499
▁Sami	-15.2508
▁Tidy	-15.2516
ripe	-15.2523
▁Ch	-15.2528
eb	-15.253
birds	-15.2533
per	-15.2541
▁general	-15.2543
▁Speak	-15.255
▁longing	-15.255
▁mules	-15.2564
alcon	-15.2567
▁stre	-15.2583
oddler	-15.2584
▁sunhat	-15.2593
▁hedgehogs	-15.2595
▁wil	-15.2605
repeat	-15.2607
picked	-15.2622
Smile	-15.2638
▁bea	-15.2647
nce	-15.265
▁bombs	-15.265
▁Len	-15.2653
wee	-15.2653
...	-15.2658
Hannah	-15.2659
▁Peanuts	-15.2663
Squirrel	-15.2667
▁Ace	-15.2669
▁Bounc	-15.2681
▁app	-15.2681
Fear	-15.2694
▁toe	-15.2711
▁observer	-15.2713
Lost	-15.2716
▁Pull	-15.2717
exit	-15.2718
▁violins	-15.2728
▁huh	-15.2734
rolled	-15.2737
only	-15.2739
ree	-15.2741
wards	-15.2743
▁embark	-15.2746
Wouldn	-15.2751
▁gang	-15.2756
▁lunches	-15.276
racing	-15.2775
Since	-15.2776
soft	-15.2786
▁Mudd	-15.2791
▁snacking	-15.2793
Dragon	-15.2801
Flower	-15.2804
Snowman	-15.2805
cheese	-15.2813
Banana	-15.2815
By	-15.2824
Wasn	-15.2845
Learn	-15.285
▁range	-15.2854
deserved	-15.2856
flew	-15.2857
Order	-15.2859
slide	-15.2859
Friendship	-15.286
xcuse	-15.286
ps	-15.2863
sister	-15.2863
ank	-15.2865
Ma	-15.2867
Orange	-15.2868
Strike	-15.2868
Yoga	-15.2868
Change	-15.2868
Purple	-15.2878
Squeak	-15.2881
Perhaps	-15.2882
▁cur	-15.2883
▁bask	-15.2886
smile	-15.2889
Someday	-15.2891
▁Firefighter	-15.2898
▁bra	-15.2901
Cake	-15.2901
rge	-15.2902
▁landscapes	-15.2903
▁pruned	-15.2909
Steak	-15.2909
▁Surprise	-15.2917
▁beehives	-15.2919
mum	-15.292
▁passionate	-15.2926
ars	-15.2928
Ignorant	-15.294
Oil	-15.2944
Hope	-15.2951
▁Jing	-15.2966
les	-15.2969
dded	-15.2975
Dolls	-15.2993
▁burp	-15.2998
Alligators	-15.3014
aying	-15.3025
inning	-15.3033
▁Che	-15.3041
noise	-15.3049
▁medicines	-15.3051
Tweety	-15.3058
▁Pilo	-15.306
swing	-15.306
▁ver	-15.306
▁overflow	-15.3062
▁chandelier	-15.3071
▁consequence	-15.3072
▁ouchie	-15.3074
▁advisor	-15.3075
▁pretzel	-15.3075
▁experienc	-15.3079
▁diaper	-15.3084
▁suds	-15.3086
paper	-15.309
urther	-15.3093
▁Waffle	-15.3094
▁beats	-15.3094
used	-15.3094
▁contract	-15.3098
cut	-15.3105
kept	-15.3108
earn	-15.3111
▁cha	-15.3119
replied	-15.312
nknowingly	-15.3122
enus	-15.3129
▁fairie	-15.3131
▁Grab	-15.3134
▁resolve	-15.3137
▁classrooms	-15.3137
▁fuzz	-15.3139
▁splat	-15.3143
Finally	-15.3144
▁awkward	-15.3145
▁ferocious	-15.3145
▁constant	-15.3145
▁Trix	-15.3146
▁Cecil	-15.3146
▁resourceful	-15.3146
▁unplug	-15.3146
eronica	-15.3146
▁Anastasia	-15.3146
▁Blackbeard	-15.3146
▁Cosmo	-15.3146
▁Darren	-15.3146
▁Delilah	-15.3146
▁Eileen	-15.3146
▁Hillary	-15.3146
▁Hudson	-15.3146
▁Murray	-15.3146
▁Nadia	-15.3146
▁Natalia	-15.3146
▁Natalie	-15.3146
▁Sniffer	-15.3146
▁Sylvie	-15.3146
▁TinTin	-15.3146
▁Wopsy	-15.3146
▁ancestors	-15.3146
▁audition	-15.3146
▁desperation	-15.3146
▁dungeon	-15.3146
▁enthralled	-15.3146
▁koala	-15.3146
▁personalities	-15.3146
▁sturdier	-15.3146
▁terrific	-15.3146
▁triceratops	-15.3146
▁turrets	-15.3146
▁volleyball	-15.3146
▁Makayla	-15.3146
▁Naia	-15.3146
▁tranquility	-15.3146
▁Bacon	-15.3146
▁Drumby	-15.3146
▁Olaf	-15.3146
▁brigade	-15.3146
▁declined	-15.3146
▁Femi	-15.3146
Supply	-15.3146
▁Sealie	-15.3146
▁Stinky	-15.3146
▁mirage	-15.3146
▁salmon	-15.3146
▁Amari	-15.3146
▁Laurie	-15.3146
▁Ariel	-15.3146
▁Francesca	-15.3146
▁Priest	-15.3146
POP	-15.3146
▁element	-15.3146
▁Fribble	-15.3146
▁Lewis	-15.3146
▁plummet	-15.3146
▁Gregory	-15.3146
ush	-15.3146
▁bonfire	-15.3146
▁cackled	-15.3146
▁prickles	-15.3146
▁Hawk	-15.3146
▁tennis	-15.3146
▁Esther	-15.3146
▁Modest	-15.3146
▁Terence	-15.3146
▁refusal	-15.3146
▁selection	-15.3146
▁enchanting	-15.3146
▁gravy	-15.3146
▁Maja	-15.3146
▁Taffy	-15.3146
▁Nesta	-15.3146
▁Donald	-15.3146
▁arrangement	-15.3146
▁Clumsy	-15.3146
▁harness	-15.3146
▁Edith	-15.3146
▁Jayden	-15.3146
▁crossbones	-15.3146
▁instructed	-15.3146
▁Meghan	-15.3147
▁Marina	-15.3147
niverse	-15.3147
▁skillfully	-15.3147
▁hesitating	-15.3147
▁attentive	-15.3147
▁peddling	-15.3147
▁Loudy	-15.3147
▁undressed	-15.3147
▁cooperating	-15.3147
▁lampshade	-15.3147
▁Alfy	-15.3147
▁smokestack	-15.3147
▁Wolfie	-15.3147
▁Chase	-15.3147
▁Tutor	-15.3147
▁pocus	-15.3147
▁communicating	-15.3147
▁Maze	-15.3147
▁triumphantly	-15.3147
▁bzzz	-15.3148
▁Anita	-15.3148
▁Chomper	-15.3148
▁rumor	-15.3148
▁Whippy	-15.3148
▁Jeanie	-15.3148
▁Celi	-15.3148
▁stomachache	-15.3148
▁courtroom	-15.3148
▁worthless	-15.3148
▁Stomp	-15.3149
▁Dovy	-15.3149
▁gleamed	-15.3149
▁sloppy	-15.3149
▁archery	-15.315
▁intact	-15.315
▁quivered	-15.315
▁inventing	-15.315
▁stunts	-15.315
▁gymnastics	-15.315
▁investigating	-15.315
▁misery	-15.3151
▁Thorg	-15.3151
▁sprite	-15.3151
▁bullfrog	-15.3151
▁vineyard	-15.3151
▁politeness	-15.3151
Birds	-15.3151
▁protein	-15.3152
▁appreciating	-15.3152
mother	-15.3153
▁Glitter	-15.3153
▁Chompy	-15.3153
▁Inchy	-15.3153
▁crazier	-15.3154
▁seesaws	-15.3154
▁commented	-15.3154
▁tinker	-15.3154
▁Grapey	-15.3155
▁clippers	-15.3156
▁detailed	-15.3156
▁conclusions	-15.3157
▁Arrow	-15.3158
▁recharge	-15.316
▁encouragingly	-15.3161
▁toothbrushes	-15.3161
▁dislikes	-15.3161
▁Sharky	-15.3162
▁saddest	-15.3162
▁Elp	-15.3162
▁Bearsy	-15.3163
▁splitter	-15.3164
▁stirrer	-15.3164
▁distracting	-15.3164
▁harvesting	-15.3165
▁Otty	-15.3165
▁Bink	-15.3165
▁hummingbird	-15.3166
▁Motor	-15.3167
▁childish	-15.3167
▁Cereal	-15.3167
▁Machine	-15.3167
▁handyman	-15.3168
▁dissolve	-15.3168
▁Scampi	-15.3168
▁Canada	-15.3169
▁discount	-15.3169
▁festive	-15.3169
▁Elise	-15.3169
▁Post	-15.3171
▁mature	-15.3172
[...]
